<unk>	0
<s>	0
</s>	0
er	-0
en	-1
▁s	-2
et	-3
▁d	-4
▁f	-5
▁o	-6
an	-7
▁m	-8
el	-9
or	-10
▁h	-11
in	-12
il	-13
▁t	-14
ar	-15
st	-16
▁og	-17
om	-18
▁a	-19
▁i	-20
▁b	-21
li	-22
▁p	-23
▁v	-24
▁k	-25
re	-26
▁er	-27
ed	-28
▁en	-29
ke	-30
▁g	-31
le	-32
on	-33
▁for	-34
tt	-35
▁som	-36
is	-37
▁n	-38
ig	-39
de	-40
▁det	-41
te	-42
ra	-43
▁å	-44
ing	-45
un	-46
▁på	-47
eg	-48
es	-49
▁til	-50
al	-51
▁av	-52
▁D	-53
▁med	-54
ter	-55
▁l	-56
▁S	-57
▁u	-58
ver	-59
ør	-60
ler	-61
ene	-62
kk	-63
am	-64
id	-65
pp	-66
ne	-67
sk	-68
▁st	-69
▁den	-70
▁M	-71
▁et	-72
kke	-73
▁sk	-74
▁har	-75
ol	-76
kt	-77
ri	-78
as	-79
lig	-80
år	-81
▁de	-82
▁«	-83
ang	-84
ende	-85
▁H	-86
and	-87
at	-88
ro	-89
ste	-90
▁at	-91
▁ikke	-92
ag	-93
se	-94
▁men	-95
▁ut	-96
der	-97
▁in	-98
▁al	-99
▁om	-100
▁li	-101
▁B	-102
us	-103
▁r	-104
ent	-105
▁T	-106
▁sp	-107
▁A	-108
▁vi	-109
▁Det	-110
elig	-111
▁F	-112
ur	-113
ens	-114
od	-115
ok	-116
▁gj	-117
mer	-118
ett	-119
ær	-120
▁fra	-121
▁opp	-122
▁E	-123
ul	-124
▁seg	-125
jon	-126
ek	-127
est	-128
ser	-129
▁P	-130
ak	-131
men	-132
it	-133
isk	-134
▁bli	-135
att	-136
▁N	-137
▁L	-138
ot	-139
▁I	-140
▁han	-141
▁j	-142
▁kan	-143
ger	-144
ist	-145
um	-146
het	-147
ning	-148
▁O	-149
ere	-150
ell	-151
så	-152
▁K	-153
▁no	-154
▁R	-155
▁du	-156
ner	-157
▁så	-158
ve	-159
ik	-160
▁re	-161
ikk	-162
je	-163
▁over	-164
▁J	-165
me	-166
▁hel	-167
ru	-168
▁(	-169
ill	-170
ant	-171
▁C	-172
▁G	-173
sp	-174
for	-175
▁sam	-176
▁inn	-177
ad	-178
▁si	-179
enn	-180
ann	-181
▁un	-182
ap	-183
▁kom	-184
sen	-185
art	-186
yn	-187
▁hv	-188
▁også	-189
▁V	-190
ge	-191
▁el	-192
▁var	-193
øy	-194
ker	-195
iv	-196
▁fil	-197
ir	-198
elv	-199
ut	-200
jer	-201
▁sin	-202
ss	-203
▁der	-204
ry	-205
ort	-206
▁mer	-207
▁kj	-208
▁før	-209
ans	-210
he	-211
dig	-212
iske	-213
▁blir	-214
▁1	-215
▁-	-216
ye	-217
ære	-218
▁le	-219
▁Men	-220
are	-221
▁må	-222
av	-223
▁god	-224
em	-225
all	-226
ingen	-227
ev	-228
øl	-229
yr	-230
▁selv	-231
eng	-232
ien	-233
ert	-234
ie	-235
den	-236
▁sl	-237
▁min	-238
▁kl	-239
▁W	-240
ob	-241
rem	-242
▁noe	-243
ff	-244
tter	-245
▁kon	-246
▁man	-247
im	-248
▁vil	-249
ks	-250
ten	-251
▁tid	-252
▁etter	-253
este	-254
os	-255
vel	-256
▁pl	-257
▁2	-258
▁enn	-259
elt	-260
og	-261
old	-262
▁"	-263
▁eller	-264
▁Den	-265
▁fort	-266
del	-267
ass	-268
per	-269
▁fin	-270
▁dette	-271
▁år	-272
▁to	-273
sl	-274
andre	-275
asjon	-276
▁ver	-277
itt	-278
ord	-279
▁ek	-280
▁hun	-281
rø	-282
ast	-283
nes	-284
ch	-285
▁denne	-286
00	-287
ck	-288
▁når	-289
ali	-290
akt	-291
iller	-292
ess	-293
tid	-294
▁får	-295
▁e	-296
ange	-297
▁bl	-298
▁under	-299
ært	-300
▁litt	-301
▁eg	-302
▁stor	-303
▁pro	-304
▁være	-305
▁skal	-306
▁jeg	-307
mp	-308
▁sv	-309
dt	-310
unn	-311
▁mot	-312
▁alt	-313
▁Og	-314
▁ser	-315
øre	-316
▁sm	-317
▁ly	-318
ov	-319
▁U	-320
ft	-321
utt	-322
gj	-323
▁vel	-324
op	-325
▁ny	-326
▁andre	-327
dre	-328
ab	-329
▁film	-330
▁frem	-331
▁her	-332
yl	-333
istor	-334
▁tr	-335
▁–	-336
▁like	-337
gg	-338
lik	-339
▁kun	-340
▁bru	-341
ull	-342
▁bare	-343
son	-344
na	-345
▁En	-346
ske	-347
ier	-348
▁bil	-349
▁gjør	-350
åde	-351
▁noen	-352
ede	-353
rig	-354
ram	-355
▁vis	-356
▁få	-357
ster	-358
»,	-359
▁mye	-360
lige	-361
skap	-362
▁gang	-363
▁sj	-364
▁De	-365
vis	-366
▁tre	-367
kker	-368
▁alle	-369
▁helt	-370
som	-371
▁ha	-372
▁godt	-373
▁St	-374
la	-375
▁nok	-376
ellom	-377
opp	-378
iden	-379
▁lå	-380
ennom	-381
ekt	-382
øn	-383
▁For	-384
».	-385
kl	-386
be	-387
ale	-388
▁hver	-389
▁både	-390
else	-391
▁se	-392
ille	-393
▁mange	-394
alt	-395
dr	-396
▁vir	-397
▁an	-398
▁kommer	-399
di	-400
mel	-401
ly	-402
▁mus	-403
inger	-404
ets	-405
▁mellom	-406
▁gr	-407
ron	-408
inn	-409
▁gjennom	-410
ic	-411
elle	-412
▁uten	-413
hold	-414
▁ann	-415
atter	-416
▁høy	-417
ktig	-418
▁lang	-419
ub	-420
▁lag	-421
▁An	-422
vet	-423
elige	-424
lø	-425
lere	-426
▁ble	-427
▁da	-428
tet	-429
sten	-430
bum	-431
▁beg	-432
▁ved	-433
▁kv	-434
▁ra	-435
▁histor	-436
▁hvor	-437
etter	-438
▁dem	-439
▁filmen	-440
▁føl	-441
ansk	-442
met	-443
▁første	-444
anske	-445
ket	-446
oli	-447
▁mest	-448
▁går	-449
sjon	-450
ion	-451
▁syn	-452
▁Han	-453
▁Al	-454
rå	-455
enger	-456
▁nå	-457
▁Vi	-458
ake	-459
▁be	-460
▁sammen	-461
▁spill	-462
ow	-463
▁per	-464
gen	-465
kket	-466
fil	-467
▁mor	-468
▁3	-469
▁del	-470
▁The	-471
tte	-472
ris	-473
ken	-474
▁vært	-475
heten	-476
oll	-477
▁ty	-478
sm	-479
ia	-480
net	-481
▁c	-482
ud	-483
adde	-484
▁bar	-485
ire	-486
ode	-487
▁meg	-488
jel	-489
▁beste	-490
▁oss	-491
▁of	-492
ater	-493
▁ri	-494
▁gir	-495
tem	-496
▁sitt	-497
▁tro	-498
▁hele	-499
ige	-500
▁In	-501
pe	-502
dag	-503
▁lø	-504
anger	-505
ød	-506
▁hans	-507
▁sine	-508
▁bak	-509
▁hen	-510
det	-511
▁samme	-512
▁hadde	-513
ven	-514
dri	-515
▁Dette	-516
▁run	-517
▁bok	-518
▁nye	-519
ber	-520
▁by	-521
▁rom	-522
▁store	-523
▁nor	-524
▁ned	-525
atur	-526
▁siden	-527
▁deg	-528
▁kunne	-529
les	-530
▁fors	-531
▁or	-532
▁gam	-533
▁tilb	-534
▁ro	-535
pen	-536
▁flere	-537
▁dag	-538
ark	-539
▁reg	-540
▁enk	-541
▁bed	-542
jem	-543
▁pre	-544
iss	-545
kj	-546
▁Her	-547
ærlig	-548
▁all	-549
▁hva	-550
▁far	-551
▁ø	-552
nd	-553
tr	-554
▁fun	-555
kelig	-556
cen	-557
ulle	-558
esten	-559
ningen	-560
sert	-561
amer	-562
esi	-563
▁tar	-564
▁ve	-565
ette	-566
▁hand	-567
ulig	-568
▁Sp	-569
▁ta	-570
lem	-571
ard	-572
gjen	-573
ust	-574
alg	-575
▁album	-576
▁fl	-577
før	-578
▁19	-579
eller	-580
▁musikk	-581
▁liv	-582
▁inter	-583
mid	-584
elsen	-585
oved	-586
▁rett	-587
▁mennes	-588
ou	-589
skje	-590
let	-591
▁sett	-592
),	-593
ult	-594
ate	-595
føl	-596
▁sn	-597
ce	-598
▁kanskje	-599
esp	-600
▁par	-601
da	-602
▁ingen	-603
▁skjer	-604
rat	-605
▁bedre	-606
▁nær	-607
ksjon	-608
▁blitt	-609
ling	-610
▁vok	-611
▁rundt	-612
▁langt	-613
▁stør	-614
▁ti	-615
gang	-616
▁Ch	-617
delig	-618
▁igjen	-619
ret	-620
ine	-621
ys	-622
over	-623
oner	-624
iver	-625
sker	-626
pt	-627
olk	-628
▁Jo	-629
▁y	-630
▁lig	-631
▁annet	-632
).	-633
▁bet	-634
▁skj	-635
▁Med	-636
▁ar	-637
pper	-638
▁mens	-639
▁gå	-640
▁Y	-641
▁tek	-642
▁slik	-643
▁sy	-644
▁stem	-645
alitet	-646
ikt	-647
els	-648
▁ster	-649
▁full	-650
▁bra	-651
isse	-652
▁Jeg	-653
▁tilbake	-654
erne	-655
▁hoved	-656
entlig	-657
ive	-658
rad	-659
▁Sk	-660
▁På	-661
▁kar	-662
rist	-663
var	-664
spill	-665
▁20	-666
▁lett	-667
▁siste	-668
eter	-669
agt	-670
▁gl	-671
▁skri	-672
und	-673
ele	-674
▁små	-675
andet	-676
▁spiller	-677
▁egen	-678
ligere	-679
▁låt	-680
▁fram	-681
ilt	-682
▁dy	-683
▁hol	-684
ordan	-685
eb	-686
▁hå	-687
▁spesi	-688
ay	-689
▁sli	-690
▁aldri	-691
▁gre	-692
ct	-693
olle	-694
▁Sam	-695
unkt	-696
ninger	-697
pet	-698
ung	-699
▁fø	-700
bil	-701
raf	-702
▁nesten	-703
▁opple	-704
kte	-705
inner	-706
ug	-707
røm	-708
▁aller	-709
ivt	-710
▁sted	-711
amil	-712
▁ham	-713
▁gjøre	-714
if	-715
elen	-716
ost	-717
▁mulig	-718
isjon	-719
▁blant	-720
ott	-721
rit	-722
olit	-723
kon	-724
eren	-725
▁4	-726
▁mann	-727
satt	-728
ennes	-729
tidig	-730
set	-731
legg	-732
▁bes	-733
▁mø	-734
▁sku	-735
The	-736
erer	-737
▁heller	-738
▁Mar	-739
▁lite	-740
ind	-741
app	-742
beid	-743
▁Der	-744
▁br	-745
by	-746
▁gode	-747
dd	-748
▁står	-749
▁sek	-750
arer	-751
inne	-752
semp	-753
igur	-754
▁likevel	-755
0-	-756
ente	-757
ask	-758
▁ganske	-759
▁nett	-760
▁kn	-761
▁ten	-762
gr	-763
▁su	-764
amera	-765
▁skap	-766
ener	-767
▁Hun	-768
vil	-769
▁best	-770
ører	-771
▁slag	-772
▁la	-773
sy	-774
med	-775
▁hvordan	-776
▁verden	-777
▁Nor	-778
film	-779
▁Fil	-780
▁svært	-781
oen	-782
▁komp	-783
▁pop	-784
elser	-785
obb	-786
dom	-787
▁virkelig	-788
▁Som	-789
▁slutt	-790
▁forf	-791
ip	-792
▁sø	-793
▁viser	-794
fon	-795
▁scen	-796
amp	-797
dus	-798
utter	-799
▁hal	-800
heter	-801
aten	-802
▁eksemp	-803
vik	-804
bar	-805
land	-806
her	-807
▁vid	-808
▁Da	-809
akter	-810
one	-811
▁disse	-812
▁ev	-813
ian	-814
▁fakt	-815
asse	-816
sf	-817
▁int	-818
▁grunn	-819
ran	-820
iser	-821
alen	-822
pro	-823
espiller	-824
ublik	-825
▁mid	-826
▁hjem	-827
bo	-828
▁person	-829
ring	-830
▁ekst	-831
▁Når	-832
▁gamle	-833
rom	-834
ublikum	-835
nt	-836
rag	-837
▁tem	-838
",	-839
..	-840
▁først	-841
▁Så	-842
kku	-843
▁ord	-844
▁øy	-845
▁begyn	-846
▁mindre	-847
▁hvert	-848
▁lyd	-849
rim	-850
▁mil	-851
sj	-852
▁mel	-853
anser	-854
▁Du	-855
▁vår	-856
ac	-857
øk	-858
kom	-859
▁åp	-860
itet	-861
ppe	-862
▁fle	-863
du	-864
▁famil	-865
▁skulle	-866
issør	-867
▁forb	-868
▁kjø	-869
▁polit	-870
▁van	-871
▁Et	-872
▁kre	-873
▁sna	-874
rett	-875
▁201	-876
iet	-877
sh	-878
▁lever	-879
▁5	-880
kken	-881
▁fremst	-882
led	-883
▁tidligere	-884
▁fått	-885
▁ville	-886
ål	-887
▁vansk	-888
ong	-889
ide	-890
kkurat	-891
fer	-892
▁ligger	-893
▁El	-894
▁hennes	-895
oder	-896
▁bev	-897
riv	-898
▁the	-899
▁funger	-900
tall	-901
▁tatt	-902
▁my	-903
iner	-904
▁fly	-905
▁Th	-906
▁skre	-907
man	-908
merik	-909
rer	-910
ore	-911
▁w	-912
ise	-913
ister	-914
▁altså	-915
rykk	-916
ike	-917
▁egentlig	-918
enner	-919
aller	-920
uten	-921
vor	-922
løs	-923
meldel	-924
end	-925
▁bruke	-926
▁låter	-927
ood	-928
ønn	-929
▁imp	-930
▁Ne	-931
ider	-932
ial	-933
▁fordi	-934
▁veldig	-935
midler	-936
enge	-937
▁jo	-938
▁form	-939
ikken	-940
▁Joh	-941
styr	-942
▁ber	-943
▁ung	-944
itar	-945
▁musik	-946
▁TV	-947
▁ting	-948
▁fant	-949
▁dram	-950
ete	-951
▁måte	-952
▁tillegg	-953
dige	-954
▁eksempel	-955
▁spille	-956
stå	-957
▁publikum	-958
▁mang	-959
igh	-960
▁Bl	-961
▁Man	-962
stand	-963
▁gjort	-964
▁stort	-965
gger	-966
▁viktig	-967
dens	-968
rik	-969
▁land	-970
raft	-971
stre	-972
▁test	-973
ite	-974
▁sel	-975
▁historien	-976
▁ofte	-977
▁roman	-978
▁historie	-979
▁hum	-980
oren	-981
red	-982
nn	-983
▁kont	-984
▁folk	-985
▁avsl	-986
ppen	-987
pl	-988
▁alltid	-989
ga	-990
▁halv	-991
form	-992
▁forhold	-993
entet	-994
kv	-995
▁finnes	-996
hol	-997
▁fem	-998
▁fikk	-999
▁barn	-1000
sel	-1001
▁akkurat	-1002
▁fj	-1003
▁faktisk	-1004
▁mør	-1005
▁fire	-1006
asjoner	-1007
▁annen	-1008
▁vå	-1009
▁liten	-1010
▁plass	-1011
▁6	-1012
▁Denne	-1013
▁spesielt	-1014
ble	-1015
▁US	-1016
▁kor	-1017
▁virker	-1018
▁høre	-1019
asser	-1020
syn	-1021
▁Ikke	-1022
▁spillet	-1023
atisk	-1024
likk	-1025
▁lu	-1026
▁hjel	-1027
▁200	-1028
▁natur	-1029
aler	-1030
▁norske	-1031
▁vanskelig	-1032
alist	-1033
øs	-1034
ink	-1035
▁finner	-1036
▁fe	-1037
▁sier	-1038
▁livet	-1039
str	-1040
▁henne	-1041
olog	-1042
ennende	-1043
int	-1044
▁dre	-1045
▁samtidig	-1046
▁fortsatt	-1047
ma	-1048
like	-1049
▁kjærlig	-1050
get	-1051
ings	-1052
▁gi	-1053
▁kron	-1054
▁forsk	-1055
▁handler	-1056
▁deres	-1057
▁kamera	-1058
ane	-1059
▁Ar	-1060
▁laget	-1061
lag	-1062
▁dø	-1063
▁morsom	-1064
▁slags	-1065
ins	-1066
▁Å	-1067
▁nytt	-1068
ars	-1069
ction	-1070
▁fer	-1071
▁pris	-1072
▁des	-1073
▁Til	-1074
bru	-1075
jør	-1076
▁ant	-1077
▁riktig	-1078
▁side	-1079
▁inne	-1080
melig	-1081
▁forv	-1082
va	-1083
▁skuespiller	-1084
▁Reg	-1085
ack	-1086
gram	-1087
▁band	-1088
usjon	-1089
uts	-1090
mann	-1091
▁hy	-1092
▁Har	-1093
▁minst	-1094
org	-1095
pre	-1096
▁kli	-1097
▁norsk	-1098
▁ep	-1099
rakt	-1100
▁Ber	-1101
elefon	-1102
▁amerik	-1103
mt	-1104
rask	-1105
▁sang	-1106
▁vet	-1107
menter	-1108
▁øn	-1109
".	-1110
▁bruker	-1111
ollen	-1112
▁deb	-1113
▁valg	-1114
▁stad	-1115
▁dess	-1116
ule	-1117
lingen	-1118
▁Be	-1119
far	-1120
▁7	-1121
ikker	-1122
▁Etter	-1123
enter	-1124
▁ry	-1125
▁stø	-1126
midlertid	-1127
▁prø	-1128
▁Ro	-1129
▁utfor	-1130
▁Un	-1131
▁Re	-1132
des	-1133
▁”	-1134
vende	-1135
▁fleste	-1136
▁Selv	-1137
▁nav	-1138
▁art	-1139
øker	-1140
▁hjer	-1141
▁fungerer	-1142
tes	-1143
dene	-1144
ha	-1145
deles	-1146
kter	-1147
▁større	-1148
▁sol	-1149
▁8	-1150
▁skil	-1151
▁enda	-1152
▁imidlertid	-1153
▁bort	-1154
▁nem	-1155
ffekt	-1156
▁klass	-1157
▁he	-1158
▁PC	-1159
gge	-1160
az	-1161
▁holder	-1162
▁finne	-1163
»-	-1164
br	-1165
ich	-1166
▁sen	-1167
▁tilf	-1168
▁eneste	-1169
▁kunst	-1170
▁po	-1171
▁dår	-1172
▁fall	-1173
erte	-1174
uss	-1175
▁sty	-1176
ående	-1177
▁forteller	-1178
▁Filmen	-1179
au	-1180
▁gli	-1181
ank	-1182
▁bur	-1183
mod	-1184
ies	-1185
▁gjen	-1186
øst	-1187
askin	-1188
▁Nå	-1189
▁fri	-1190
▁te	-1191
lå	-1192
ivå	-1193
▁sitter	-1194
bart	-1195
▁eng	-1196
ttet	-1197
nings	-1198
▁nemlig	-1199
akk	-1200
meldelse	-1201
▁hos	-1202
▁hånd	-1203
ue	-1204
mb	-1205
▁stil	-1206
of	-1207
▁Z	-1208
▁beh	-1209
velse	-1210
anse	-1211
▁spennende	-1212
▁enkelt	-1213
▁tross	-1214
▁utt	-1215
tre	-1216
person	-1217
bs	-1218
▁Rob	-1219
▁sak	-1220
asjonen	-1221
▁ein	-1222
▁mennesker	-1223
▁fr	-1224
én	-1225
ester	-1226
sje	-1227
ograf	-1228
under	-1229
▁spor	-1230
▁klarer	-1231
▁kroner	-1232
000	-1233
▁samt	-1234
▁Le	-1235
rende	-1236
ørt	-1237
▁synes	-1238
▁interess	-1239
our	-1240
assen	-1241
TE	-1242
elat	-1243
▁minutter	-1244
▁overrask	-1245
eder	-1246
arbeid	-1247
ffer	-1248
▁hverandre	-1249
▁bør	-1250
▁allerede	-1251
lo	-1252
vem	-1253
▁nev	-1254
▁lenge	-1255
reng	-1256
▁kvel	-1257
full	-1258
▁jobb	-1259
jø	-1260
▁hvis	-1261
▁tekst	-1262
stem	-1263
verdig	-1264
sv	-1265
▁enkel	-1266
▁regissør	-1267
▁rolle	-1268
▁gitar	-1269
▁gjel	-1270
▁krig	-1271
▁mod	-1272
▁sky	-1273
sent	-1274
ves	-1275
ib	-1276
th	-1277
ony	-1278
▁try	-1279
▁spør	-1280
spunkt	-1281
▁ganger	-1282
▁forel	-1283
▁tiden	-1284
▁bry	-1285
▁lik	-1286
verre	-1287
arter	-1288
▁forfatter	-1289
fter	-1290
rige	-1291
ah	-1292
ign	-1293
▁smak	-1294
▁X	-1295
øse	-1296
▁komme	-1297
▁følger	-1298
▁kjærlighet	-1299
▁én	-1300
▁karakter	-1301
▁videre	-1302
▁Ø	-1303
▁Pro	-1304
▁sjel	-1305
unt	-1306
▁føles	-1307
▁bruk	-1308
ante	-1309
▁Norge	-1310
▁ei	-1311
▁Se	-1312
▁tydelig	-1313
atet	-1314
ument	-1315
apt	-1316
ade	-1317
digvis	-1318
▁rø	-1319
obil	-1320
▁bilder	-1321
▁dri	-1322
ight	-1323
▁bas	-1324
kur	-1325
▁underhold	-1326
giv	-1327
ommer	-1328
arte	-1329
slag	-1330
▁sent	-1331
▁melod	-1332
imot	-1333
▁dra	-1334
▁kraft	-1335
▁unge	-1336
▁ans	-1337
▁kjent	-1338
▁Ste	-1339
▁start	-1340
▁ekstra	-1341
ove	-1342
ærer	-1343
gende	-1344
still	-1345
yd	-1346
▁hus	-1347
▁fyl	-1348
▁hvil	-1349
til	-1350
▁kal	-1351
▁akt	-1352
▁fot	-1353
▁figur	-1354
▁åpen	-1355
vn	-1356
tert	-1357
radisjon	-1358
album	-1359
▁musikal	-1360
▁imponer	-1361
aur	-1362
unnet	-1363
▁Kon	-1364
ummer	-1365
▁sc	-1366
▁&	-1367
mus	-1368
▁detal	-1369
▁gjerne	-1370
vert	-1371
▁død	-1372
▁John	-1373
▁stadig	-1374
▁grad	-1375
▁satt	-1376
▁gjelder	-1377
sett	-1378
tere	-1379
▁ko	-1380
▁styr	-1381
▁gener	-1382
▁rask	-1383
▁slett	-1384
bare	-1385
ått	-1386
▁fortell	-1387
▁At	-1388
skri	-1389
▁klart	-1390
▁tur	-1391
▁plate	-1392
kes	-1393
▁utvik	-1394
▁bor	-1395
▁vold	-1396
20	-1397
jell	-1398
▁løs	-1399
sagt	-1400
isten	-1401
ach	-1402
▁Sh	-1403
▁ulike	-1404
lende	-1405
ksom	-1406
▁Er	-1407
▁trenger	-1408
tallet	-1409
ond	-1410
stru	-1411
ick	-1412
▁sa	-1413
▁venn	-1414
sb	-1415
▁effekt	-1416
fl	-1417
rar	-1418
▁møter	-1419
▁særlig	-1420
ina	-1421
▁To	-1422
▁versjon	-1423
io	-1424
ingene	-1425
▁9	-1426
fort	-1427
▁bandet	-1428
rigin	-1429
▁lar	-1430
▁beveg	-1431
▁action	-1432
iene	-1433
entene	-1434
▁produs	-1435
▁kort	-1436
jen	-1437
▁rekke	-1438
berg	-1439
mene	-1440
▁største	-1441
blem	-1442
ole	-1443
står	-1444
po	-1445
▁mål	-1446
▁burde	-1447
▁bilde	-1448
orde	-1449
sak	-1450
iker	-1451
itu	-1452
ges	-1453
▁albumet	-1454
▁tv	-1455
▁abs	-1456
udi	-1457
▁begynner	-1458
▁fint	-1459
▁arbeid	-1460
stad	-1461
lin	-1462
▁stedet	-1463
▁ute	-1464
▁leng	-1465
af	-1466
▁fry	-1467
▁Osl	-1468
▁besk	-1469
▁hatt	-1470
sn	-1471
ons	-1472
ativ	-1473
gre	-1474
på	-1475
▁scenen	-1476
▁skrevet	-1477
▁holde	-1478
▁lille	-1479
okus	-1480
▁tan	-1481
▁lys	-1482
grunn	-1483
▁sette	-1484
ødven	-1485
▁Om	-1486
▁ett	-1487
▁lage	-1488
ansett	-1489
vær	-1490
ansen	-1491
▁drøm	-1492
heng	-1493
▁gammel	-1494
duksjon	-1495
▁red	-1496
▁met	-1497
▁origin	-1498
▁on	-1499
▁kin	-1500
fin	-1501
▁titt	-1502
▁tra	-1503
▁låtene	-1504
▁spen	-1505
▁rå	-1506
▁humor	-1507
▁vanlig	-1508
ført	-1509
ighet	-1510
kkes	-1511
▁verdens	-1512
▁manus	-1513
▁meget	-1514
▁No	-1515
▁aut	-1516
▁ter	-1517
late	-1518
syk	-1519
terer	-1520
▁krim	-1521
▁stand	-1522
▁ret	-1523
▁vei	-1524
skapet	-1525
▁Ut	-1526
▁ne	-1527
vid	-1528
▁USA	-1529
▁hav	-1530
▁Mer	-1531
ande	-1532
▁skikk	-1533
▁trå	-1534
entyr	-1535
▁bef	-1536
▁Fre	-1537
råk	-1538
odet	-1539
▁dårlig	-1540
▁gjeng	-1541
uler	-1542
▁eksp	-1543
sikt	-1544
▁setter	-1545
▁derfor	-1546
histor	-1547
▁gjorde	-1548
kant	-1549
▁sjar	-1550
ppet	-1551
▁rock	-1552
▁sterk	-1553
▁skjermen	-1554
somt	-1555
ultur	-1556
▁kvalitet	-1557
mot	-1558
teg	-1559
nen	-1560
bev	-1561
▁selvsagt	-1562
▁id	-1563
▁pres	-1564
▁gangen	-1565
gjør	-1566
ira	-1567
▁mat	-1568
urt	-1569
▁serien	-1570
▁skriver	-1571
ata	-1572
essig	-1573
iale	-1574
▁egne	-1575
▁øyeb	-1576
▁byr	-1577
▁perf	-1578
▁Like	-1579
▁sterke	-1580
atiske	-1581
ith	-1582
eks	-1583
▁sist	-1584
figur	-1585
punkt	-1586
van	-1587
▁fjer	-1588
▁sann	-1589
gt	-1590
jene	-1591
▁epis	-1592
▁spilt	-1593
▁Wil	-1594
▁Oslo	-1595
uder	-1596
verk	-1597
▁veien	-1598
...	-1599
▁program	-1600
IL	-1601
age	-1602
asjer	-1603
▁sagt	-1604
▁alvor	-1605
ensjon	-1606
▁liker	-1607
▁tror	-1608
ps	-1609
▁15	-1610
bin	-1611
▁forskjel	-1612
▁telefon	-1613
▁soli	-1614
▁ekte	-1615
fatter	-1616
▁moder	-1617
ivers	-1618
▁Jon	-1619
▁Me	-1620
▁forn	-1621
▁leser	-1622
▁seks	-1623
▁din	-1624
▁bek	-1625
▁musikken	-1626
drer	-1627
ensen	-1628
omp	-1629
ash	-1630
▁Pl	-1631
▁teg	-1632
mende	-1633
erg	-1634
▁gutt	-1635
▁fest	-1636
spir	-1637
yen	-1638
kkende	-1639
▁Alt	-1640
inter	-1641
▁stre	-1642
▁konkur	-1643
▁tradisjon	-1644
▁begge	-1645
▁boka	-1646
▁sjanger	-1647
iel	-1648
▁ungdom	-1649
▁Før	-1650
ers	-1651
ton	-1652
▁slutten	-1653
aktig	-1654
vit	-1655
▁midt	-1656
▁tvil	-1657
pass	-1658
▁fas	-1659
jul	-1660
▁us	-1661
▁bilen	-1662
ame	-1663
ath	-1664
edet	-1665
rang	-1666
▁fantast	-1667
enser	-1668
nok	-1669
mest	-1670
bl	-1671
▁ses	-1672
▁skyl	-1673
▁sider	-1674
kkje	-1675
▁lov	-1676
▁meste	-1677
spiller	-1678
uli	-1679
ånd	-1680
elses	-1681
len	-1682
lt	-1683
▁tyn	-1684
▁selve	-1685
▁fremdeles	-1686
▁neste	-1687
▁tred	-1688
▁vak	-1689
▁eget	-1690
▁res	-1691
ats	-1692
usen	-1693
▁mon	-1694
▁ang	-1695
▁ref	-1696
▁synger	-1697
ju	-1698
pa	-1699
▁starter	-1700
▁vide	-1701
EN	-1702
▁Of	-1703
vrig	-1704
ren	-1705
▁Sm	-1706
▁filmer	-1707
mere	-1708
▁Co	-1709
▁stemme	-1710
anmeldelse	-1711
▁sør	-1712
▁snakker	-1713
▁deler	-1714
▁th	-1715
▁interessant	-1716
åt	-1717
▁hjelp	-1718
▁(1	-1719
▁Noen	-1720
▁utgang	-1721
▁Mus	-1722
▁New	-1723
ja	-1724
edelig	-1725
spor	-1726
omm	-1727
▁minne	-1728
ock	-1729
edd	-1730
▁mag	-1731
▁problem	-1732
sc	-1733
abel	-1734
sne	-1735
▁derimot	-1736
▁Dess	-1737
▁feil	-1738
▁plan	-1739
▁ban	-1740
▁forsv	-1741
▁feng	-1742
▁utstyr	-1743
ders	-1744
uelle	-1745
▁mangler	-1746
ES	-1747
ekter	-1748
iz	-1749
▁Bo	-1750
▁Car	-1751
▁ikkje	-1752
▁basert	-1753
opple	-1754
orn	-1755
sket	-1756
gjeng	-1757
▁10	-1758
▁Hol	-1759
▁ir	-1760
tern	-1761
▁menn	-1762
▁kry	-1763
▁høres	-1764
▁lenger	-1765
hy	-1766
▁eks	-1767
rum	-1768
▁Fran	-1769
venn	-1770
▁me	-1771
▁super	-1772
▁He	-1773
rock	-1774
okk	-1775
enes	-1776
spekt	-1777
▁sanger	-1778
▁nettopp	-1779
▁mobil	-1780
▁Christ	-1781
vd	-1782
▁forstå	-1783
lay	-1784
▁via	-1785
går	-1786
fatt	-1787
▁gått	-1788
▁amerikanske	-1789
uro	-1790
løst	-1791
▁batter	-1792
▁disk	-1793
bok	-1794
▁maskin	-1795
▁dyr	-1796
▁ind	-1797
olutt	-1798
▁and	-1799
gelig	-1800
sø	-1801
▁innt	-1802
elly	-1803
▁Kar	-1804
▁lange	-1805
▁kamp	-1806
▁timer	-1807
▁kna	-1808
▁naturlig	-1809
▁elekt	-1810
▁betyr	-1811
▁gra	-1812
▁vise	-1813
▁imponerende	-1814
▁gikk	-1815
ses	-1816
▁filmens	-1817
▁tak	-1818
oller	-1819
▁fjor	-1820
off	-1821
par	-1822
sjonen	-1823
▁skrive	-1824
▁Eller	-1825
▁måtte	-1826
▁Samtidig	-1827
▁spørsm	-1828
▁testet	-1829
▁forrige	-1830
▁navn	-1831
▁kvinn	-1832
▁uansett	-1833
▁ste	-1834
ile	-1835
:«	-1836
▁gitt	-1837
▁Bok	-1838
▁hovedperson	-1839
▁kro	-1840
kelige	-1841
▁sommer	-1842
ffe	-1843
▁hvorfor	-1844
▁dire	-1845
veis	-1846
.000	-1847
agelig	-1848
▁mark	-1849
▁legger	-1850
▁dei	-1851
▁kje	-1852
▁ing	-1853
▁Regi	-1854
▁bid	-1855
▁vari	-1856
▁utgangspunkt	-1857
▁sønn	-1858
ikkert	-1859
▁psyk	-1860
▁funksjon	-1861
▁debut	-1862
edie	-1863
▁bre	-1864
▁Mo	-1865
▁kameraet	-1866
St	-1867
▁tekn	-1868
sa	-1869
▁hold	-1870
▁øyeblikk	-1871
▁12	-1872
kel	-1873
▁ram	-1874
fall	-1875
▁nødven	-1876
uelt	-1877
valg	-1878
▁familie	-1879
co	-1880
▁foran	-1881
▁skjerm	-1882
▁Per	-1883
▁kvinne	-1884
▁topp	-1885
▁fol	-1886
▁dessverre	-1887
▁fullt	-1888
▁iP	-1889
▁so	-1890
▁boken	-1891
dighet	-1892
aks	-1893
ald	-1894
ment	-1895
▁lok	-1896
▁kjøre	-1897
▁minner	-1898
funn	-1899
▁Hel	-1900
▁blod	-1901
pop	-1902
dere	-1903
ames	-1904
▁klar	-1905
▁Hva	-1906
elsene	-1907
▁proble	-1908
▁eventyr	-1909
▁konsert	-1910
▁kjenner	-1911
▁kap	-1912
jerne	-1913
part	-1914
▁konse	-1915
▁utfordr	-1916
▁Br	-1917
▁ak	-1918
▁fokus	-1919
ningene	-1920
▁absolutt	-1921
▁sær	-1922
▁kontr	-1923
▁hjemme	-1924
▁hvem	-1925
▁forskjellige	-1926
kene	-1927
elles	-1928
mon	-1929
▁bi	-1930
▁vit	-1931
▁rep	-1932
siden	-1933
UM	-1934
hus	-1935
ain	-1936
▁And	-1937
▁helst	-1938
▁ene	-1939
eth	-1940
▁drama	-1941
nevn	-1942
▁relat	-1943
▁våre	-1944
▁tok	-1945
▁Mc	-1946
▁skje	-1947
▁ellers	-1948
enting	-1949
▁stille	-1950
▁tredje	-1951
aster	-1952
▁gru	-1953
esk	-1954
▁ønsker	-1955
aen	-1956
aw	-1957
▁You	-1958
▁direkte	-1959
sted	-1960
▁overraskende	-1961
gel	-1962
▁situ	-1963
enske	-1964
atte	-1965
▁barne	-1966
▁Mich	-1967
▁lav	-1968
fører	-1969
▁høyt	-1970
▁grø	-1971
▁fremstår	-1972
udd	-1973
▁høyde	-1974
▁skaper	-1975
ork	-1976
tek	-1977
▁oppt	-1978
▁sånn	-1979
vok	-1980
ny	-1981
▁bal	-1982
▁tung	-1983
▁unna	-1984
▁lagt	-1985
▁nærmest	-1986
▁Av	-1987
▁is	-1988
▁um	-1989
▁Bar	-1990
▁co	-1991
▁konser	-1992
AN	-1993
ation	-1994
▁skjøn	-1995
bef	-1996
▁Pa	-1997
▁fast	-1998
▁skar	-1999
▁dermed	-2000
▁Dan	-2001
annen	-2002
res	-2003
estill	-2004
anskje	-2005
skaper	-2006
▁Bro	-2007
▁tri	-2008
▁relativt	-2009
somme	-2010
▁bakgrunn	-2011
sess	-2012
ium	-2013
egg	-2014
▁Ph	-2015
irk	-2016
liv	-2017
▁brit	-2018
reg	-2019
▁velge	-2020
▁pos	-2021
rama	-2022
▁oppd	-2023
▁energ	-2024
serien	-2025
▁mørke	-2026
nevnte	-2027
▁senere	-2028
ift	-2029
▁tø	-2030
▁ad	-2031
▁Sc	-2032
▁følge	-2033
▁sex	-2034
▁lese	-2035
▁ka	-2036
velsen	-2037
▁Par	-2038
▁glem	-2039
▁Slik	-2040
▁tema	-2041
sjekt	-2042
▁oppg	-2043
▁dessuten	-2044
▁hodet	-2045
my	-2046
fri	-2047
▁dukker	-2048
▁blå	-2049
▁moderne	-2050
▁åpner	-2051
▁årene	-2052
▁ru	-2053
▁strøm	-2054
aven	-2055
▁mis	-2056
▁Gr	-2057
▁Alle	-2058
unk	-2059
aurant	-2060
▁/	-2061
musikk	-2062
enne	-2063
▁hev	-2064
▁slå	-2065
fe	-2066
akker	-2067
sg	-2068
▁199	-2069
lene	-2070
▁kvinner	-2071
ften	-2072
▁hem	-2073
itivt	-2074
▁kam	-2075
likt	-2076
ont	-2077
▁time	-2078
▁alene	-2079
▁18	-2080
▁gen	-2081
▁utro	-2082
▁Dav	-2083
▁ufor	-2084
ows	-2085
setter	-2086
mens	-2087
▁Likevel	-2088
▁Robin	-2089
▁datter	-2090
▁litter	-2091
▁ga	-2092
uell	-2093
▁tom	-2094
▁Under	-2095
▁eit	-2096
▁Kanskje	-2097
beh	-2098
▁detaljer	-2099
iens	-2100
rykket	-2101
følgelig	-2102
skjer	-2103
▁enkle	-2104
▁menneske	-2105
aren	-2106
føre	-2107
▁ide	-2108
▁vakre	-2109
ome	-2110
telse	-2111
illet	-2112
▁eleg	-2113
ime	-2114
ball	-2115
▁mener	-2116
ld	-2117
ilte	-2118
alte	-2119
▁fre	-2120
50	-2121
skj	-2122
▁forsøker	-2123
▁bord	-2124
iks	-2125
filmen	-2126
▁kombin	-2127
LB	-2128
▁sh	-2129
▁Opp	-2130
azz	-2131
wood	-2132
ep	-2133
▁forkl	-2134
ålet	-2135
▁scene	-2136
øren	-2137
▁konf	-2138
▁greit	-2139
▁inv	-2140
hen	-2141
messig	-2142
▁sav	-2143
jørn	-2144
▁Andre	-2145
▁unn	-2146
▁tanke	-2147
▁Ma	-2148
▁nord	-2149
fra	-2150
ultatet	-2151
LBUM	-2152
▁rollen	-2153
menn	-2154
▁part	-2155
▁virke	-2156
▁suks	-2157
▁hører	-2158
▁tru	-2159
holder	-2160
ael	-2161
fyl	-2162
jent	-2163
▁kveld	-2164
urn	-2165
▁amb	-2166
untry	-2167
ams	-2168
▁sikkert	-2169
okument	-2170
▁11	-2171
▁konkurr	-2172
▁pot	-2173
▁solid	-2174
▁Også	-2175
kluder	-2176
▁tider	-2177
▁uttrykk	-2178
unge	-2179
▁job	-2180
oman	-2181
▁Ser	-2182
▁årets	-2183
▁Krist	-2184
its	-2185
▁middel	-2186
▁Tom	-2187
▁Over	-2188
▁rest	-2189
▁løpet	-2190
ace	-2191
▁prøver	-2192
up	-2193
▁ball	-2194
▁sterkt	-2195
sam	-2196
ues	-2197
▁Ge	-2198
▁troverdig	-2199
ager	-2200
▁karri	-2201
▁mannen	-2202
▁personlig	-2203
leg	-2204
riller	-2205
ellen	-2206
unst	-2207
▁Ver	-2208
løse	-2209
▁hverdag	-2210
løsning	-2211
▁overbev	-2212
▁perfekt	-2213
▁hu	-2214
▁snart	-2215
▁HD	-2216
▁tot	-2217
▁Tor	-2218
▁x	-2219
etten	-2220
rid	-2221
▁forh	-2222
▁raskt	-2223
ogen	-2224
▁sår	-2225
▁skape	-2226
▁defin	-2227
følger	-2228
risk	-2229
vere	-2230
▁krit	-2231
iktig	-2232
▁passer	-2233
▁USB	-2234
mil	-2235
▁utmer	-2236
▁mening	-2237
▁My	-2238
▁fasc	-2239
▁svak	-2240
ll	-2241
▁foreg	-2242
▁kob	-2243
bildet	-2244
▁Bil	-2245
▁velly	-2246
▁interes	-2247
▁ALBUM	-2248
mor	-2249
ER	-2250
▁Hvor	-2251
▁Histor	-2252
atene	-2253
▁oppdag	-2254
▁handlingen	-2255
▁milli	-2256
▁scener	-2257
▁app	-2258
▁ven	-2259
ftig	-2260
▁hovedr	-2261
band	-2262
▁ner	-2263
▁innen	-2264
no	-2265
vin	-2266
▁frykt	-2267
▁Lu	-2268
▁spørsmål	-2269
▁voksne	-2270
kre	-2271
lack	-2272
▁bland	-2273
▁Ny	-2274
▁heter	-2275
▁kontra	-2276
▁ob	-2277
trent	-2278
▁tilgjeng	-2279
▁føler	-2280
▁telefonen	-2281
omb	-2282
▁Ingen	-2283
▁språk	-2284
ty	-2285
▁Mor	-2286
▁Hans	-2287
▁vokal	-2288
▁em	-2289
ator	-2290
enten	-2291
▁minste	-2292
▁øvrig	-2293
▁16	-2294
olen	-2295
▁slår	-2296
▁lin	-2297
▁sos	-2298
fun	-2299
▁poeng	-2300
▁bel	-2301
▁Or	-2302
▁it	-2303
fulle	-2304
ild	-2305
▁God	-2306
vek	-2307
▁forsøk	-2308
øm	-2309
▁farger	-2310
.»	-2311
▁sammenlig	-2312
▁Su	-2313
▁(19	-2314
▁pass	-2315
▁underholdende	-2316
forfatter	-2317
▁kjedelig	-2318
▁ves	-2319
▁(«	-2320
▁fantas	-2321
▁bildet	-2322
▁natt	-2323
ley	-2324
stendig	-2325
▁altfor	-2326
▁198	-2327
▁mar	-2328
kort	-2329
▁sing	-2330
rafikk	-2331
iste	-2332
▁produksjon	-2333
▁Regissør	-2334
▁tråd	-2335
gjenger	-2336
▁Mot	-2337
▁måter	-2338
▁familien	-2339
▁lo	-2340
▁skikkelig	-2341
▁vin	-2342
itall	-2343
▁selvfølgelig	-2344
dret	-2345
▁sesong	-2346
klusjon	-2347
▁Kn	-2348
røy	-2349
isen	-2350
▁fyr	-2351
middel	-2352
kende	-2353
ensi	-2354
▁mater	-2355
▁ekstrem	-2356
▁ingenting	-2357
mes	-2358
▁lyst	-2359
▁tidvis	-2360
▁enkelte	-2361
▁hardt	-2362
▁Te	-2363
ansert	-2364
▁sjøl	-2365
▁såpass	-2366
ledes	-2367
istisk	-2368
ror	-2369
elsk	-2370
aliteten	-2371
▁hyl	-2372
ix	-2373
astatur	-2374
▁utenfor	-2375
udio	-2376
▁Fl	-2377
200	-2378
▁makt	-2379
▁kommet	-2380
▁oppr	-2381
▁do	-2382
▁Wh	-2383
▁nø	-2384
▁flott	-2385
alk	-2386
▁Fra	-2387
▁nivå	-2388
▁ren	-2389
▁resten	-2390
▁stra	-2391
▁oppleves	-2392
ral	-2393
▁tå	-2394
rens	-2395
▁støy	-2396
▁ch	-2397
▁brukes	-2398
▁kultur	-2399
vde	-2400
▁Hen	-2401
▁von	-2402
▁varme	-2403
merende	-2404
skil	-2405
▁bass	-2406
ørende	-2407
▁fordel	-2408
▁formid	-2409
▁åpenbart	-2410
▁platen	-2411
▁leve	-2412
drene	-2413
stemet	-2414
▁nøy	-2415
▁brukt	-2416
utselig	-2417
▁tett	-2418
▁ender	-2419
▁fron	-2420
ative	-2421
▁Gre	-2422
▁David	-2423
urer	-2424
åten	-2425
dde	-2426
deren	-2427
▁motor	-2428
▁Ad	-2429
▁Litt	-2430
øret	-2431
▁dig	-2432
▁Wind	-2433
later	-2434
aget	-2435
▁Mart	-2436
isme	-2437
▁Dermed	-2438
gave	-2439
▁ytter	-2440
▁romanen	-2441
kere	-2442
▁leverer	-2443
▁jord	-2444
▁intern	-2445
▁Mag	-2446
▁Vel	-2447
▁Stor	-2448
▁driv	-2449
▁miljø	-2450
▁fine	-2451
▁riktignok	-2452
▁tilh	-2453
▁gro	-2454
▁Ed	-2455
▁kjære	-2456
▁Pe	-2457
▁møte	-2458
fest	-2459
sene	-2460
▁omtrent	-2461
nende	-2462
orten	-2463
assert	-2464
ivet	-2465
▁Mon	-2466
▁forfatteren	-2467
▁jul	-2468
hetene	-2469
terte	-2470
sere	-2471
▁you	-2472
kjent	-2473
▁fantastisk	-2474
▁Sch	-2475
▁Robinson	-2476
▁Hvis	-2477
▁problemer	-2478
▁hopp	-2479
▁kil	-2480
iem	-2481
▁bo	-2482
▁sur	-2483
▁Kj	-2484
▁sje	-2485
▁unnt	-2486
dring	-2487
▁Cl	-2488
sson	-2489
bilde	-2490
ynam	-2491
sdag	-2492
ikere	-2493
aktige	-2494
byg	-2495
▁grep	-2496
▁samfunn	-2497
▁frå	-2498
▁Am	-2499
▁hard	-2500
ben	-2501
▁So	-2502
▁sjelden	-2503
delige	-2504
▁Eg	-2505
vanlig	-2506
▁dager	-2507
▁13	-2508
▁Nord	-2509
▁Sams	-2510
▁Ja	-2511
▁197	-2512
▁tidlig	-2513
▁On	-2514
istiske	-2515
▁faller	-2516
ilig	-2517
▁kra	-2518
isert	-2519
▁enor	-2520
OR	-2521
høy	-2522
iment	-2523
▁glede	-2524
ure	-2525
synelat	-2526
▁velger	-2527
▁jev	-2528
oth	-2529
▁tør	-2530
▁bunn	-2531
▁popul	-2532
▁stund	-2533
▁musikalsk	-2534
2.	-2535
▁Sn	-2536
▁Min	-2537
sep	-2538
▁video	-2539
scen	-2540
▁romant	-2541
itter	-2542
▁vann	-2543
▁Fredag	-2544
▁dans	-2545
0,	-2546
▁Sony	-2547
ice	-2548
▁byg	-2549
▁kjente	-2550
▁skuff	-2551
rep	-2552
▁oper	-2553
gå	-2554
▁klare	-2555
▁klassisk	-2556
▁Go	-2557
ense	-2558
▁sat	-2559
▁trø	-2560
▁legge	-2561
▁enten	-2562
▁venner	-2563
ana	-2564
▁verken	-2565
▁It	-2566
▁spe	-2567
si	-2568
ader	-2569
stø	-2570
▁hjerte	-2571
utsig	-2572
▁ansikt	-2573
inerende	-2574
filmer	-2575
▁Willi	-2576
▁består	-2577
▁funnet	-2578
uespiller	-2579
▁suksess	-2580
▁tenke	-2581
rike	-2582
▁typen	-2583
oden	-2584
▁altern	-2585
spillet	-2586
▁fortsetter	-2587
▁led	-2588
alent	-2589
▁passe	-2590
synelatende	-2591
mar	-2592
▁brut	-2593
▁stå	-2594
▁musikalske	-2595
ggen	-2596
▁standard	-2597
▁inkluder	-2598
▁irri	-2599
vitt	-2600
▁James	-2601
▁vite	-2602
▁ødel	-2603
▁dat	-2604
▁prem	-2605
ity	-2606
▁Fo	-2607
▁overle	-2608
▁elsker	-2609
▁dial	-2610
In	-2611
innen	-2612
synlig	-2613
▁fornøy	-2614
▁pian	-2615
▁Samsung	-2616
▁intro	-2617
ias	-2618
▁håp	-2619
▁utgangspunktet	-2620
▁ja	-2621
▁penger	-2622
own	-2623
▁følelser	-2624
▁spenning	-2625
▁kunstner	-2626
ney	-2627
spirert	-2628
▁dokument	-2629
▁port	-2630
mun	-2631
▁Is	-2632
▁ub	-2633
▁lager	-2634
▁samarbeid	-2635
▁drar	-2636
▁delt	-2637
▁Historien	-2638
avor	-2639
▁ele	-2640
▁verdt	-2641
▁sekunder	-2642
▁La	-2643
▁dom	-2644
but	-2645
sty	-2646
▁fører	-2647
bel	-2648
ettere	-2649
bu	-2650
gående	-2651
▁forestill	-2652
▁country	-2653
▁Noe	-2654
kjenn	-2655
▁17	-2656
▁forvent	-2657
hel	-2658
▁jule	-2659
bi	-2660
stra	-2661
▁anbef	-2662
▁måten	-2663
▁univers	-2664
bas	-2665
▁plasser	-2666
kna	-2667
kar	-2668
▁artist	-2669
▁Gj	-2670
▁myst	-2671
Det	-2672
åring	-2673
▁klo	-2674
▁byen	-2675
▁plutselig	-2676
▁We	-2677
anne	-2678
▁Windows	-2679
rip	-2680
▁sle	-2681
▁prakt	-2682
▁beskri	-2683
▁kraftig	-2684
▁morsomt	-2685
engt	-2686
min	-2687
alis	-2688
▁forsø	-2689
▁tilsynelatende	-2690
▁pr	-2691
▁forgjenger	-2692
▁erfar	-2693
▁ryt	-2694
▁holdt	-2695
ric	-2696
▁tilgjengelig	-2697
serte	-2698
▁unntak	-2699
▁ben	-2700
▁Thom	-2701
▁Michael	-2702
▁teater	-2703
ival	-2704
ellet	-2705
unkter	-2706
▁innhold	-2707
▁Både	-2708
▁live	-2709
▁autom	-2710
▁lyden	-2711
ppene	-2712
▁fart	-2713
året	-2714
▁Sim	-2715
▁opplevelse	-2716
nær	-2717
▁dyp	-2718
serie	-2719
▁bærer	-2720
▁utmerket	-2721
▁kat	-2722
▁rev	-2723
dende	-2724
▁merke	-2725
▁uts	-2726
immel	-2727
▁radi	-2728
▁Ale	-2729
olf	-2730
▁handling	-2731
▁latter	-2732
uer	-2733
▁koster	-2734
▁serie	-2735
ettet	-2736
ørene	-2737
▁mu	-2738
alistisk	-2739
▁umiddel	-2740
▁ton	-2741
ILM	-2742
aken	-2743
▁ju	-2744
ino	-2745
▁mik	-2746
▁skru	-2747
▁Inn	-2748
▁pra	-2749
nert	-2750
merksom	-2751
ym	-2752
▁dagens	-2753
svis	-2754
sland	-2755
▁hendel	-2756
iger	-2757
kast	-2758
▁fortelling	-2759
SEN	-2760
gget	-2761
▁forl	-2762
▁Ol	-2763
▁30	-2764
uttet	-2765
iler	-2766
▁motstand	-2767
▁skapt	-2768
▁smart	-2769
▁grå	-2770
▁treffer	-2771
▁refer	-2772
▁reise	-2773
▁mester	-2774
vekkende	-2775
nerledes	-2776
▁App	-2777
▁vakker	-2778
ko	-2779
▁kolle	-2780
▁følelsen	-2781
▁Mac	-2782
▁veg	-2783
kkelig	-2784
▁skuespillere	-2785
▁Bru	-2786
▁server	-2787
▁maskinen	-2788
merte	-2789
▁konserten	-2790
hets	-2791
▁skur	-2792
imensjon	-2793
▁utg	-2794
▁fru	-2795
▁ident	-2796
▁begrens	-2797
▁valgt	-2798
fullt	-2799
▁låten	-2800
▁Derfor	-2801
▁dum	-2802
ensk	-2803
▁knapt	-2804
▁utgiv	-2805
▁pa	-2806
adet	-2807
▁Love	-2808
▁Sj	-2809
▁fys	-2810
aker	-2811
vne	-2812
▁kino	-2813
▁likhet	-2814
▁heldigvis	-2815
▁Po	-2816
▁dikt	-2817
▁nydelig	-2818
▁svar	-2819
▁herlig	-2820
▁stemning	-2821
akten	-2822
▁amerikansk	-2823
ytt	-2824
albumet	-2825
▁krever	-2826
▁Ben	-2827
▁bud	-2828
▁Paul	-2829
▁befinner	-2830
akkert	-2831
ggelig	-2832
▁fortelle	-2833
▁York	-2834
▁bær	-2835
anter	-2836
▁vidt	-2837
▁tittel	-2838
do	-2839
▁rel	-2840
▁rette	-2841
▁yn	-2842
øp	-2843
han	-2844
▁uv	-2845
ason	-2846
roman	-2847
▁hørt	-2848
▁oppfølger	-2849
▁slike	-2850
▁starten	-2851
▁ønske	-2852
▁viktigste	-2853
▁oppmerksom	-2854
verden	-2855
1.	-2856
▁PS	-2857
▁Frank	-2858
▁svart	-2859
▁Nok	-2860
ikter	-2861
▁døde	-2862
▁inntrykk	-2863
10	-2864
lek	-2865
▁dersom	-2866
▁elektron	-2867
▁interessante	-2868
yt	-2869
har	-2870
iere	-2871
▁kjem	-2872
stil	-2873
▁Les	-2874
▁presen	-2875
dal	-2876
▁annerledes	-2877
▁retning	-2878
▁Mens	-2879
▁inst	-2880
ai	-2881
▁Robert	-2882
▁avslut	-2883
▁pe	-2884
▁Jac	-2885
▁levende	-2886
egge	-2887
▁høyere	-2888
▁FILM	-2889
▁14	-2890
▁GB	-2891
▁høyre	-2892
so	-2893
ÅT	-2894
▁stykke	-2895
svar	-2896
▁strå	-2897
følge	-2898
slig	-2899
▁kost	-2900
▁Tre	-2901
nivå	-2902
▁faren	-2903
▁bildene	-2904
▁klassiske	-2905
▁viss	-2906
▁mist	-2907
▁intens	-2908
mark	-2909
▁Konklusjon	-2910
▁ho	-2911
▁Bra	-2912
▁forven	-2913
ht	-2914
cke	-2915
▁gar	-2916
▁tap	-2917
versjonen	-2918
▁inten	-2919
▁LÅT	-2920
▁Øy	-2921
alsk	-2922
sang	-2923
▁stat	-2924
sjoner	-2925
▁sjarmerende	-2926
60	-2927
En	-2928
kob	-2929
▁overfl	-2930
▁Ty	-2931
ander	-2932
▁symp	-2933
lywood	-2934
▁landet	-2935
pris	-2936
▁lykkes	-2937
▁Dessuten	-2938
▁engasjer	-2939
▁høydepunkt	-2940
▁ment	-2941
▁umulig	-2942
▁off	-2943
▁preg	-2944
ama	-2945
▁Far	-2946
▁tempo	-2947
▁nab	-2948
ittel	-2949
▁anmel	-2950
▁eldre	-2951
ush	-2952
dukt	-2953
▁glad	-2954
▁trag	-2955
▁sies	-2956
stene	-2957
▁Black	-2958
▁vanlige	-2959
▁opt	-2960
bilder	-2961
▁War	-2962
▁kjemp	-2963
asjonene	-2964
aden	-2965
▁Ved	-2966
velser	-2967
▁Don	-2968
▁grun	-2969
terende	-2970
▁sikker	-2971
▁snakke	-2972
▁jobber	-2973
▁DV	-2974
jener	-2975
isst	-2976
▁tids	-2977
iteten	-2978
holde	-2979
▁fortellingen	-2980
kjente	-2981
agen	-2982
▁tenker	-2983
▁sto	-2984
gru	-2985
▁hvit	-2986
▁Ha	-2987
▁Sol	-2988
▁skum	-2989
▁dine	-2990
▁bestem	-2991
▁politisk	-2992
▁glim	-2993
gl	-2994
▁tastatur	-2995
▁restaurant	-2996
▁utrolig	-2997
dres	-2998
cker	-2999
▁sliter	-3000
▁brø	-3001
▁Mange	-3002
▁Sand	-3003
drende	-3004
▁sangene	-3005
▁Int	-3006
▁Mad	-3007
▁ferdig	-3008
▁2.	-3009
asjons	-3010
hl	-3011
sporet	-3012
Th	-3013
▁VG	-3014
sessor	-3015
itch	-3016
▁vant	-3017
lert	-3018
▁Kan	-3019
▁nummer	-3020
▁dobb	-3021
produs	-3022
▁felles	-3023
▁Eli	-3024
▁Phil	-3025
▁flo	-3026
ørte	-3027
ned	-3028
▁beveger	-3029
▁1,	-3030
De	-3031
▁elegant	-3032
ax	-3033
▁behov	-3034
▁stopp	-3035
▁dypt	-3036
▁hemmelig	-3037
▁vellykket	-3038
▁Først	-3039
▁skrem	-3040
▁fortalt	-3041
ka	-3042
▁Ter	-3043
80	-3044
su	-3045
▁Peter	-3046
▁gjent	-3047
ESTE	-3048
▁metal	-3049
▁ekstremt	-3050
▁Lars	-3051
▁pu	-3052
▁rød	-3053
▁Res	-3054
▁sid	-3055
spira	-3056
▁definitivt	-3057
ena	-3058
▁Con	-3059
linger	-3060
▁Tr	-3061
edde	-3062
elvis	-3063
▁Lar	-3064
ialet	-3065
▁vekt	-3066
spro	-3067
▁Juli	-3068
▁bidrar	-3069
▁BESTE	-3070
▁rollefigur	-3071
lir	-3072
ologi	-3073
▁Sammen	-3074
▁plassert	-3075
▁svenske	-3076
▁dynam	-3077
lest	-3078
sens	-3079
▁All	-3080
setning	-3081
mm	-3082
orld	-3083
▁størr	-3084
råket	-3085
▁snar	-3086
▁sport	-3087
skyl	-3088
▁still	-3089
▁Bergen	-3090
▁25	-3091
ubb	-3092
isende	-3093
nte	-3094
▁design	-3095
▁Gu	-3096
pisk	-3097
vir	-3098
lagt	-3099
snitt	-3100
IN	-3101
▁nærmere	-3102
låt	-3103
▁kontroll	-3104
▁såk	-3105
▁sve	-3106
føring	-3107
▁forskjell	-3108
▁stemmen	-3109
▁dør	-3110
▁steder	-3111
▁følelse	-3112
osjon	-3113
▁endelig	-3114
kontr	-3115
▁jazz	-3116
▁hvilken	-3117
isi	-3118
▁Lo	-3119
helt	-3120
▁vakkert	-3121
omme	-3122
urder	-3123
blikk	-3124
▁masse	-3125
ouse	-3126
▁Thomas	-3127
LE	-3128
ress	-3129
nene	-3130
sser	-3131
▁hjelper	-3132
ds	-3133
rene	-3134
▁Disse	-3135
▁dist	-3136
▁Euro	-3137
▁Char	-3138
▁dagen	-3139
▁Ali	-3140
▁tilfel	-3141
ica	-3142
▁Dessverre	-3143
▁repre	-3144
▁foregår	-3145
stein	-3146
▁Martin	-3147
strument	-3148
tak	-3149
▁Jack	-3150
▁kr	-3151
▁fatt	-3152
verdige	-3153
▁Nil	-3154
▁Son	-3155
▁trekker	-3156
▁blanding	-3157
ham	-3158
lys	-3159
▁Ly	-3160
alet	-3161
▁Yo	-3162
▁Mye	-3163
ellene	-3164
▁britiske	-3165
▁rimelig	-3166
▁Je	-3167
▁oppdrag	-3168
roid	-3169
▁Ta	-3170
åringen	-3171
ukt	-3172
▁driver	-3173
▁åtte	-3174
▁kropp	-3175
historie	-3176
▁redde	-3177
▁plu	-3178
▁Roman	-3179
▁100	-3180
▁Gar	-3181
ikke	-3182
▁elementer	-3183
anna	-3184
▁meny	-3185
▁overkant	-3186
▁utover	-3187
jekt	-3188
”,	-3189
aner	-3190
▁slipper	-3191
▁vest	-3192
hver	-3193
▁ferd	-3194
ollene	-3195
▁underholdning	-3196
▁skjeb	-3197
▁fengende	-3198
vo	-3199
▁halvt	-3200
▁utstyrt	-3201
brudd	-3202
▁glass	-3203
▁preget	-3204
▁komedie	-3205
mo	-3206
bruk	-3207
▁Hollywood	-3208
lar	-3209
une	-3210
osh	-3211
▁thriller	-3212
▁gal	-3213
brett	-3214
▁folke	-3215
▁norm	-3216
▁blikk	-3217
▁betrakt	-3218
▁voksen	-3219
hone	-3220
▁synth	-3221
▁kjører	-3222
▁Kv	-3223
etisk	-3224
tiden	-3225
klasse	-3226
▁prosjekt	-3227
hand	-3228
▁teksten	-3229
▁gull	-3230
ttal	-3231
▁omgiv	-3232
må	-3233
▁hø	-3234
ave	-3235
▁1.	-3236
▁Jan	-3237
kning	-3238
▁Sel	-3239
3-	-3240
row	-3241
▁refreng	-3242
▁jente	-3243
▁kvelden	-3244
▁Ke	-3245
▁ST	-3246
alle	-3247
opplevelse	-3248
heim	-3249
▁indre	-3250
▁Mid	-3251
ekte	-3252
▁lands	-3253
▁jobben	-3254
▁skjønner	-3255
▁Bare	-3256
▁front	-3257
kester	-3258
anten	-3259
foner	-3260
▁sub	-3261
fen	-3262
isp	-3263
orge	-3264
▁inneholder	-3265
▁luft	-3266
ferdig	-3267
▁spilte	-3268
▁Berg	-3269
▁barna	-3270
▁toppen	-3271
▁moro	-3272
▁Blu	-3273
▁fullstendig	-3274
▁di	-3275
hav	-3276
iten	-3277
▁fien	-3278
Un	-3279
▁fik	-3280
▁hip	-3281
▁org	-3282
inert	-3283
orter	-3284
▁anim	-3285
▁skuespillerne	-3286
▁dog	-3287
▁Sv	-3288
▁dere	-3289
ict	-3290
ruk	-3291
kkel	-3292
lass	-3293
ensene	-3294
avoritt	-3295
▁produsent	-3296
ryt	-3297
▁Mel	-3298
▁visst	-3299
lit	-3300
▁Dag	-3301
▁im	-3302
▁Tra	-3303
▁skarp	-3304
▁bred	-3305
▁regissøren	-3306
▁ur	-3307
▁frisk	-3308
▁end	-3309
▁aner	-3310
SD	-3311
▁skyld	-3312
sky	-3313
gangen	-3314
dy	-3315
way	-3316
▁Pris	-3317
▁bøker	-3318
▁mørk	-3319
▁Tek	-3320
▁Beste	-3321
▁z	-3322
hjul	-3323
▁peng	-3324
▁varm	-3325
▁na	-3326
▁korte	-3327
▁kul	-3328
▁set	-3329
oper	-3330
▁Ry	-3331
skre	-3332
▁Tim	-3333
isere	-3334
▁kommun	-3335
▁virkeligheten	-3336
ca	-3337
▁II	-3338
▁ler	-3339
▁fang	-3340
▁meng	-3341
▁konst	-3342
▁borte	-3343
▁engelsk	-3344
book	-3345
iverset	-3346
▁drøy	-3347
▁kaller	-3348
▁tekster	-3349
orer	-3350
ikeren	-3351
lett	-3352
▁hens	-3353
▁Spesi	-3354
▁oppløsning	-3355
▁DVD	-3356
▁navnet	-3357
meldelsen	-3358
▁sold	-3359
▁venstre	-3360
vide	-3361
▁vri	-3362
▁vind	-3363
grense	-3364
▁utvalg	-3365
▁strålende	-3366
▁barnd	-3367
▁eksist	-3368
funksjon	-3369
retter	-3370
▁fascinerende	-3371
▁melank	-3372
▁året	-3373
ografi	-3374
tommer	-3375
▁original	-3376
RK	-3377
▁bygger	-3378
▁tittelen	-3379
vå	-3380
▁stjer	-3381
program	-3382
nere	-3383
▁nevnte	-3384
▁forsvinner	-3385
▁As	-3386
▁omt	-3387
▁sik	-3388
ola	-3389
▁søt	-3390
▁servit	-3391
▁rik	-3392
kamera	-3393
▁punkt	-3394
▁hovedpersonen	-3395
▁mister	-3396
spilling	-3397
▁Hand	-3398
▁våpen	-3399
An	-3400
▁henger	-3401
▁prisen	-3402
elefoner	-3403
▁historier	-3404
▁Fort	-3405
utg	-3406
funnet	-3407
▁områ	-3408
▁show	-3409
▁prøve	-3410
sfull	-3411
zz	-3412
delen	-3413
odene	-3414
▁Siden	-3415
melige	-3416
gar	-3417
kli	-3418
laget	-3419
komp	-3420
▁Sør	-3421
▁ill	-3422
▁evne	-3423
▁dyktig	-3424
▁rent	-3425
▁politiske	-3426
▁tol	-3427
▁sentra	-3428
▁styrke	-3429
ish	-3430
▁ennå	-3431
▁innled	-3432
mos	-3433
▁hundre	-3434
▁leseren	-3435
gn	-3436
▁att	-3437
▁Sy	-3438
▁skam	-3439
▁Hv	-3440
30	-3441
vju	-3442
▁hvite	-3443
▁kjenne	-3444
40	-3445
kor	-3446
▁stemmer	-3447
▁menneskene	-3448
▁fi	-3449
olum	-3450
uck	-3451
iesel	-3452
▁munn	-3453
▁markedet	-3454
▁50	-3455
▁høst	-3456
▁relig	-3457
ement	-3458
▁figurer	-3459
▁Heldigvis	-3460
▁avslutt	-3461
aske	-3462
▁Skuespiller	-3463
kjed	-3464
▁sære	-3465
▁blues	-3466
▁finger	-3467
▁dokumentar	-3468
use	-3469
stid	-3470
▁forutsig	-3471
ban	-3472
▁196	-3473
3.	-3474
olt	-3475
▁str	-3476
▁parod	-3477
▁(200	-3478
▁type	-3479
olo	-3480
ftet	-3481
aste	-3482
barn	-3483
reds	-3484
ther	-3485
dringer	-3486
▁forstår	-3487
ba	-3488
ongen	-3489
▁streng	-3490
▁hit	-3491
▁Ho	-3492
ksis	-3493
▁opplever	-3494
▁prosent	-3495
▁oms	-3496
▁etab	-3497
▁bandets	-3498
▁Var	-3499
▁refle	-3500
esse	-3501
▁anled	-3502
Den	-3503
abil	-3504
spilt	-3505
▁øyne	-3506
kje	-3507
▁ul	-3508
▁fantastiske	-3509
åp	-3510
fly	-3511
▁forgjengeren	-3512
▁ditt	-3513
▁konsekv	-3514
▁2,	-3515
aly	-3516
▁log	-3517
▁neppe	-3518
che	-3519
▁Høy	-3520
drama	-3521
årets	-3522
▁vekk	-3523
▁krimin	-3524
2-	-3525
fte	-3526
ondon	-3527
▁behand	-3528
▁detalj	-3529
▁kjøkken	-3530
annet	-3531
▁prof	-3532
▁Eng	-3533
▁les	-3534
▁grafikk	-3535
mat	-3536
▁moren	-3537
▁opps	-3538
angeren	-3539
asje	-3540
▁Fer	-3541
▁triv	-3542
▁prest	-3543
201	-3544
▁foret	-3545
»:	-3546
▁Dre	-3547
▁Android	-3548
9,	-3549
▁himmel	-3550
▁lettere	-3551
▁morsomme	-3552
kka	-3553
▁Flere	-3554
▁hast	-3555
▁åpne	-3556
▁helhet	-3557
▁Bill	-3558
▁veks	-3559
▁filmene	-3560
»)	-3561
lade	-3562
▁underveis	-3563
ips	-3564
ottet	-3565
▁forvir	-3566
olin	-3567
økene	-3568
▁Hoved	-3569
▁Gjennom	-3570
▁figurene	-3571
▁Tw	-3572
▁stry	-3573
lie	-3574
▁Fire	-3575
▁pluss	-3576
▁praksis	-3577
ming	-3578
▁flotte	-3579
folk	-3580
ffekter	-3581
▁støtte	-3582
▁understre	-3583
▁tim	-3584
▁karriere	-3585
æren	-3586
▁Hal	-3587
fortell	-3588
ologisk	-3589
▁generasjon	-3590
▁iPhone	-3591
▁Erik	-3592
igheten	-3593
▁ubeh	-3594
konom	-3595
▁Alex	-3596
▁inkludert	-3597
sløs	-3598
▁vårt	-3599
▁internasjon	-3600
▁skr	-3601
alisme	-3602
▁venter	-3603
stilling	-3604
▁barndom	-3605
ét	-3606
▁glimrende	-3607
elet	-3608
▁desper	-3609
▁Spillet	-3610
▁muligheten	-3611
▁muligens	-3612
▁bu	-3613
orden	-3614
otisk	-3615
▁veier	-3616
skriver	-3617
▁vokalist	-3618
▁Hell	-3619
aby	-3620
▁uhy	-3621
▁nokså	-3622
▁ytelse	-3623
▁tusen	-3624
▁skrekk	-3625
▁sort	-3626
mannen	-3627
▁nødvendigvis	-3628
▁oppf	-3629
uren	-3630
▁kny	-3631
▁begynn	-3632
rader	-3633
▁sorg	-3634
isjoner	-3635
▁deilig	-3636
▁studio	-3637
able	-3638
▁priv	-3639
Wh	-3640
gges	-3641
▁vill	-3642
mennes	-3643
▁Amerik	-3644
▁opptatt	-3645
aliser	-3646
▁irriterende	-3647
▁minim	-3648
▁liksom	-3649
▁Sw	-3650
scar	-3651
▁tøff	-3652
▁Gra	-3653
▁styre	-3654
øring	-3655
▁overt	-3656
▁krigen	-3657
▁forholdet	-3658
▁billig	-3659
▁Album	-3660
leser	-3661
▁iron	-3662
sto	-3663
▁soul	-3664
▁kjøpe	-3665
▁utvikler	-3666
▁hentet	-3667
▁ass	-3668
dersgrense	-3669
sfor	-3670
▁danse	-3671
▁hardd	-3672
▁dels	-3673
▁40	-3674
bandet	-3675
parten	-3676
atikk	-3677
▁skrev	-3678
▁havner	-3679
▁mobilen	-3680
▁nærme	-3681
appe	-3682
▁dyb	-3683
plate	-3684
▁solo	-3685
▁sal	-3686
dø	-3687
ky	-3688
▁spise	-3689
lete	-3690
▁kast	-3691
▁harddisk	-3692
▁NRK	-3693
▁totalt	-3694
verket	-3695
▁menyen	-3696
▁sistnevnte	-3697
▁vist	-3698
▁produkt	-3699
▁servert	-3700
▁særdeles	-3701
▁instrument	-3702
oo	-3703
▁Sl	-3704
▁fortid	-3705
▁ni	-3706
sken	-3707
▁skiller	-3708
▁Resultatet	-3709
AR	-3710
byen	-3711
▁sko	-3712
teren	-3713
▁Bjørn	-3714
▁Manus	-3715
anserte	-3716
sete	-3717
▁Tid	-3718
▁Maria	-3719
▁ba	-3720
espill	-3721
▁gjøres	-3722
▁inns	-3723
hjer	-3724
▁takket	-3725
▁sju	-3726
▁post	-3727
▁brå	-3728
itler	-3729
varet	-3730
▁kler	-3731
▁biler	-3732
▁viste	-3733
▁vondt	-3734
▁kampen	-3735
irl	-3736
▁hyggelig	-3737
▁skildrer	-3738
5.	-3739
ause	-3740
onert	-3741
port	-3742
▁sammenheng	-3743
hengig	-3744
skrift	-3745
følelse	-3746
spirasjon	-3747
▁sannsynlig	-3748
▁virkelighet	-3749
ssk	-3750
anke	-3751
▁ful	-3752
▁stram	-3753
▁slikt	-3754
▁Mark	-3755
▁hår	-3756
skudd	-3757
▁dialog	-3758
▁lydbildet	-3759
jeld	-3760
orte	-3761
stav	-3762
▁Can	-3763
▁trist	-3764
shistor	-3765
▁nødvendig	-3766
▁sign	-3767
▁Angel	-3768
▁aktiv	-3769
▁motsetning	-3770
▁ør	-3771
melt	-3772
forsk	-3773
▁absur	-3774
uri	-3775
▁Ford	-3776
▁spilles	-3777
▁alternativ	-3778
▁lære	-3779
▁vare	-3780
edvanlig	-3781
▁gjennomført	-3782
astro	-3783
▁Play	-3784
▁mask	-3785
▁melodi	-3786
▁mass	-3787
▁vinter	-3788
▁behagelig	-3789
box	-3790
ellig	-3791
▁føle	-3792
▁resultatet	-3793
aus	-3794
▁Gl	-3795
atch	-3796
eland	-3797
▁Apple	-3798
▁energi	-3799
ipp	-3800
▁verd	-3801
▁gøy	-3802
▁jakt	-3803
▁hovedsak	-3804
▁inspirert	-3805
agn	-3806
essen	-3807
ementene	-3808
4.	-3809
▁sjarm	-3810
▁rørende	-3811
eist	-3812
enta	-3813
▁kontrast	-3814
als	-3815
▁Dam	-3816
▁galt	-3817
▁peri	-3818
▁digit	-3819
▁talent	-3820
▁startet	-3821
alit	-3822
iven	-3823
▁Rock	-3824
▁fris	-3825
▁tekstene	-3826
▁Christian	-3827
bre	-3828
edes	-3829
▁drømmer	-3830
▁gjenkjenn	-3831
lis	-3832
orien	-3833
▁pap	-3834
▁kone	-3835
▁gjer	-3836
▁trekk	-3837
Jeg	-3838
ding	-3839
krig	-3840
▁Dis	-3841
▁Smith	-3842
▁episode	-3843
▁IS	-3844
▁80-	-3845
▁bro	-3846
▁London	-3847
za	-3848
▁gn	-3849
abri	-3850
▁greier	-3851
sset	-3852
ordet	-3853
▁salg	-3854
usi	-3855
▁farg	-3856
▁enhver	-3857
nede	-3858
▁innenfor	-3859
▁umiddelbart	-3860
▁Ka	-3861
▁Sa	-3862
▁idé	-3863
▁Spesielt	-3864
itte	-3865
klass	-3866
livet	-3867
▁Will	-3868
▁Norges	-3869
▁dobbelt	-3870
opplevelsen	-3871
ase	-3872
▁Film	-3873
▁Star	-3874
vennlig	-3875
▁litteratur	-3876
ray	-3877
ump	-3878
▁eksper	-3879
▁foreldre	-3880
▁journ	-3881
▁savner	-3882
▁fortjener	-3883
ivalen	-3884
avanger	-3885
isering	-3886
▁inform	-3887
▁millioner	-3888
▁vær	-3889
▁hjul	-3890
▁rart	-3891
▁spre	-3892
▁sekv	-3893
▁takt	-3894
▁manusforfatter	-3895
user	-3896
ident	-3897
▁skjønn	-3898
▁Ex	-3899
▁respekt	-3900
▁skyldes	-3901
ensin	-3902
▁nost	-3903
▁personer	-3904
▁fler	-3905
▁mekt	-3906
ika	-3907
▁Uten	-3908
▁nostalg	-3909
gte	-3910
angen	-3911
▁nevne	-3912
▁skole	-3913
gent	-3914
▁betyd	-3915
▁fjern	-3916
▁lytter	-3917
▁lek	-3918
▁Rich	-3919
somhet	-3920
▁klisje	-3921
▁mulighet	-3922
▁bri	-3923
▁åpning	-3924
▁oppstår	-3925
▁stiller	-3926
▁virkelige	-3927
tekn	-3928
▁vente	-3929
OM	-3930
▁Gud	-3931
▁drap	-3932
▁situasjoner	-3933
ifte	-3934
▁ark	-3935
▁Wood	-3936
▁Oscar	-3937
alistiske	-3938
klar	-3939
▁Kat	-3940
▁Bre	-3941
▁kjøtt	-3942
▁verste	-3943
▁syk	-3944
▁grei	-3945
▁sens	-3946
▁organ	-3947
▁kamer	-3948
▁ypper	-3949
2,	-3950
▁inntil	-3951
▁merkelig	-3952
▁beskjed	-3953
AL	-3954
ors	-3955
▁konstru	-3956
▁Matt	-3957
følgende	-3958
TEN	-3959
▁mine	-3960
aga	-3961
vare	-3962
trykk	-3963
blemet	-3964
ammer	-3965
▁kons	-3966
▁Do	-3967
ura	-3968
estet	-3969
▁grus	-3970
▁gul	-3971
▁fotograf	-3972
cy	-3973
▁innom	-3974
▁intervju	-3975
MI	-3976
▁plast	-3977
rot	-3978
ED	-3979
eltet	-3980
▁stemningen	-3981
rin	-3982
▁noens	-3983
edel	-3984
øver	-3985
▁sig	-3986
▁fisk	-3987
▁livs	-3988
▁bordet	-3989
▁spis	-3990
mert	-3991
▁kir	-3992
▁fylt	-3993
▁fjell	-3994
▁Fin	-3995
gård	-3996
▁itali	-3997
▁kontakt	-3998
▁mob	-3999
▁bygge	-4000
▁rocke	-4001
▁klassen	-4002
▁temmelig	-4003
ones	-4004
▁snakk	-4005
▁kjærligheten	-4006
ori	-4007
grep	-4008
▁Vin	-4009
▁talt	-4010
▁komfort	-4011
He	-4012
nne	-4013
▁fan	-4014
▁papp	-4015
out	-4016
▁kjøp	-4017
▁minutt	-4018
▁økonom	-4019
ynene	-4020
▁høye	-4021
▁Hvorfor	-4022
versjon	-4023
▁tilnær	-4024
fol	-4025
▁terror	-4026
▁dramatisk	-4027
ower	-4028
sekv	-4029
galler	-4030
EL	-4031
tende	-4032
▁introdus	-4033
omen	-4034
iksler	-4035
▁Super	-4036
▁debuten	-4037
▁franske	-4038
▁hjertet	-4039
arbeidet	-4040
▁bag	-4041
famil	-4042
stjer	-4043
gjennom	-4044
▁forbed	-4045
▁Sist	-4046
▁bryter	-4047
hjel	-4048
▁skul	-4049
▁synge	-4050
Ch	-4051
lan	-4052
▁svensk	-4053
gaver	-4054
▁synd	-4055
▁tone	-4056
olusjon	-4057
▁trekke	-4058
▁tilsvar	-4059
▁Del	-4060
▁akk	-4061
▁kalt	-4062
▁varier	-4063
▁artister	-4064
cer	-4065
bit	-4066
ales	-4067
▁spar	-4068
▁leder	-4069
▁funker	-4070
▁kalle	-4071
▁legen	-4072
▁komment	-4073
ance	-4074
▁Harry	-4075
drag	-4076
▁Lin	-4077
filmene	-4078
▁sjangeren	-4079
▁sit	-4080
▁Skjer	-4081
▁delen	-4082
▁klasse	-4083
ørs	-4084
inkel	-4085
▁syke	-4086
▁ekspl	-4087
▁mistet	-4088
▁fotball	-4089
▁personlige	-4090
▁onde	-4091
▁fulle	-4092
8.	-4093
▁bety	-4094
▁rad	-4095
drift	-4096
▁verk	-4097
forsker	-4098
▁skjedde	-4099
▁yt	-4100
rest	-4101
akelig	-4102
▁høyttal	-4103
▁utvikling	-4104
kkede	-4105
▁utny	-4106
▁Just	-4107
kont	-4108
▁70-	-4109
▁muligheter	-4110
▁sne	-4111
ativt	-4112
mater	-4113
ph	-4114
▁ris	-4115
meric	-4116
▁grens	-4117
ølv	-4118
ella	-4119
▁gig	-4120
riper	-4121
▁overbevisende	-4122
▁Aldersgrense	-4123
▁nevnt	-4124
▁innslag	-4125
dags	-4126
disk	-4127
osof	-4128
▁hor	-4129
teres	-4130
▁stru	-4131
▁fjerde	-4132
▁noensinne	-4133
alene	-4134
▁sans	-4135
▁kompli	-4136
▁lengre	-4137
rog	-4138
▁regel	-4139
▁favoritt	-4140
▁konflikt	-4141
TV	-4142
ih	-4143
▁tilfreds	-4144
▁reiser	-4145
3,	-4146
gjort	-4147
landet	-4148
▁piano	-4149
▁posit	-4150
atikken	-4151
nå	-4152
▁kyn	-4153
7.	-4154
bet	-4155
▁snø	-4156
▁Wi	-4157
▁diesel	-4158
▁hovedrollen	-4159
wn	-4160
▁Helt	-4161
iserer	-4162
skjerm	-4163
▁Vår	-4164
▁emosjon	-4165
▁omk	-4166
▁plater	-4167
▁utgave	-4168
ife	-4169
▁3.	-4170
ttes	-4171
▁Des	-4172
▁Tar	-4173
▁kne	-4174
ifter	-4175
skapen	-4176
▁tenkt	-4177
▁opprinn	-4178
ippe	-4179
▁sønnen	-4180
▁Kom	-4181
vent	-4182
▁følelses	-4183
▁hakk	-4184
askinen	-4185
entlige	-4186
imellom	-4187
CD	-4188
”.	-4189
ampen	-4190
▁optim	-4191
▁King	-4192
▁fransk	-4193
vers	-4194
▁...	-4195
▁Sil	-4196
▁høyst	-4197
▁deretter	-4198
atri	-4199
låter	-4200
strøm	-4201
▁Lang	-4202
▁Vol	-4203
▁but	-4204
▁bill	-4205
▁husker	-4206
▁kla	-4207
▁bakgrunnen	-4208
frik	-4209
▁MOR	-4210
▁sof	-4211
▁ma	-4212
▁Mil	-4213
▁Nic	-4214
ammen	-4215
▁forsiktig	-4216
▁Bob	-4217
▁lavere	-4218
▁menneskelig	-4219
00-	-4220
▁lei	-4221
▁politi	-4222
ringer	-4223
▁huset	-4224
▁stu	-4225
ommet	-4226
▁Paris	-4227
historien	-4228
bror	-4229
kunst	-4230
▁Jones	-4231
▁effektivt	-4232
▁Ab	-4233
mosf	-4234
egger	-4235
værende	-4236
▁krefter	-4237
▁forbin	-4238
forn	-4239
ters	-4240
▁kok	-4241
▁Begge	-4242
▁Night	-4243
▁dreier	-4244
brø	-4245
▁data	-4246
▁dro	-4247
▁slu	-4248
▁sitte	-4249
▁tegnes	-4250
Sh	-4251
▁(201	-4252
utstyr	-4253
▁lurer	-4254
akul	-4255
språk	-4256
▁tungt	-4257
PS	-4258
▁go	-4259
▁Hvordan	-4260
▁fjorårets	-4261
▁uro	-4262
▁sørger	-4263
▁intellig	-4264
ftige	-4265
▁lest	-4266
▁slit	-4267
ttitall	-4268
Al	-4269
▁Ander	-4270
▁Spill	-4271
▁sjeld	-4272
▁overfor	-4273
▁effektiv	-4274
▁,	-4275
▁hot	-4276
▁ska	-4277
illa	-4278
▁øre	-4279
▁tall	-4280
iverse	-4281
kvalitet	-4282
stillinger	-4283
sjé	-4284
▁BM	-4285
▁ple	-4286
systemet	-4287
▁tor	-4288
▁Skal	-4289
▁oppe	-4290
▁uttrykket	-4291
▁tren	-4292
▁lokale	-4293
▁gjengen	-4294
▁oppdater	-4295
gu	-4296
▁ess	-4297
Ne	-4298
go	-4299
▁NIL	-4300
▁NILSEN	-4301
▁demon	-4302
▁nasjon	-4303
▁begeist	-4304
atten	-4305
dyr	-4306
løp	-4307
ørr	-4308
trer	-4309
▁kur	-4310
▁perspekt	-4311
▁Ba	-4312
otiske	-4313
ano	-4314
▁hom	-4315
litter	-4316
▁Chris	-4317
▁søster	-4318
fi	-4319
AND	-4320
▁DA	-4321
▁Bon	-4322
▁Anne	-4323
▁result	-4324
▁begynte	-4325
▁pengene	-4326
▁forestillingen	-4327
▁øv	-4328
▁bit	-4329
▁ond	-4330
kkene	-4331
▁MORTEN	-4332
ugh	-4333
vete	-4334
▁visuelle	-4335
▁naturligvis	-4336
inge	-4337
▁løp	-4338
▁frist	-4339
▁invol	-4340
▁viktige	-4341
500	-4342
▁represen	-4343
▁Stavanger	-4344
arm	-4345
▁STÅ	-4346
▁rus	-4347
▁overf	-4348
▁samtid	-4349
▁sterkeste	-4350
▁Fe	-4351
▁kos	-4352
▁avstand	-4353
egn	-4354
▁STÅLE	-4355
▁utgjør	-4356
▁treng	-4357
▁vinner	-4358
▁oppdager	-4359
sta	-4360
olsk	-4361
likevel	-4362
▁svarte	-4363
▁imponerer	-4364
▁Hu	-4365
inga	-4366
▁episoder	-4367
▁Hå	-4368
artet	-4369
stående	-4370
ati	-4371
verd	-4372
▁neg	-4373
kommer	-4374
delse	-4375
▁begrenset	-4376
ærende	-4377
olkning	-4378
▁bensin	-4379
▁smerte	-4380
lim	-4381
▁One	-4382
▁Young	-4383
▁Europa	-4384
▁ønsket	-4385
▁SSD	-4386
▁Stre	-4387
▁tromm	-4388
"-	-4389
fot	-4390
hvert	-4391
▁gram	-4392
▁danser	-4393
▁jap	-4394
sport	-4395
▁landskap	-4396
9.	-4397
▁mott	-4398
▁forklar	-4399
nor	-4400
▁Gal	-4401
kultur	-4402
▁Ek	-4403
▁dimensjon	-4404
kan	-4405
▁fir	-4406
▁tab	-4407
▁raskere	-4408
▁krevende	-4409
▁Si	-4410
▁fritt	-4411
▁skjedd	-4412
▁smaker	-4413
▁Nei	-4414
kobling	-4415
▁forfatt	-4416
▁oppleve	-4417
ada	-4418
rere	-4419
ettes	-4420
▁filmskap	-4421
▁Forfatter	-4422
▁dramatiske	-4423
▁Eric	-4424
▁imot	-4425
▁resp	-4426
▁tank	-4427
rond	-4428
▁sentiment	-4429
5,	-4430
▁nærheten	-4431
▁hendelser	-4432
hånd	-4433
▁øynene	-4434
▁Hor	-4435
▁pin	-4436
▁samle	-4437
▁begynnelsen	-4438
▁ap	-4439
preg	-4440
▁pent	-4441
▁riff	-4442
▁arrang	-4443
▁framstår	-4444
▁antakelig	-4445
eleg	-4446
▁Nin	-4447
lerte	-4448
▁bein	-4449
kson	-4450
▁Van	-4451
▁mikro	-4452
▁tunge	-4453
hop	-4454
sende	-4455
▁bril	-4456
▁kunn	-4457
▁hvilket	-4458
ross	-4459
▁fare	-4460
▁typisk	-4461
▁up	-4462
stet	-4463
smessig	-4464
▁forventet	-4465
ody	-4466
▁tradisjonelle	-4467
ski	-4468
▁bon	-4469
utvik	-4470
▁utse	-4471
▁misten	-4472
▁portrett	-4473
ady	-4474
anda	-4475
▁hin	-4476
▁sende	-4477
4-	-4478
For	-4479
▁Your	-4480
ara	-4481
▁syv	-4482
skrig	-4483
▁seri	-4484
▁stoff	-4485
▁hakket	-4486
▁bokstav	-4487
ska	-4488
▁akust	-4489
▁Første	-4490
▁hjelpe	-4491
▁klarte	-4492
iam	-4493
slige	-4494
▁Sund	-4495
krefter	-4496
▁veksler	-4497
▁utfordringer	-4498
fj	-4499
▁90-	-4500
▁brett	-4501
▁tjene	-4502
▁låtskriver	-4503
kamp	-4504
▁Pan	-4505
▁Wal	-4506
inerte	-4507
▁regis	-4508
▁trykk	-4509
Bo	-4510
▁obser	-4511
Bl	-4512
hun	-4513
▁ytre	-4514
erende	-4515
alitets	-4516
hem	-4517
▁kutt	-4518
utgaven	-4519
▁fyller	-4520
▁konkurrentene	-4521
sid	-4522
▁dét	-4523
▁hvilke	-4524
▁fremover	-4525
utten	-4526
▁stri	-4527
▁raske	-4528
engende	-4529
aut	-4530
cks	-4531
▁gu	-4532
kret	-4533
huset	-4534
iserte	-4535
▁lærer	-4536
▁nerve	-4537
▁ærlig	-4538
▁scenene	-4539
▁Problemet	-4540
inere	-4541
▁forbi	-4542
oug	-4543
inke	-4544
▁uje	-4545
ennen	-4546
▁kjønn	-4547
▁bestemt	-4548
▁forster	-4549
ppa	-4550
ktur	-4551
▁beny	-4552
▁Blant	-4553
▁utvil	-4554
▁anmelder	-4555
▁gjengjeld	-4556
egen	-4557
bal	-4558
ards	-4559
▁pri	-4560
▁kult	-4561
▁Akkurat	-4562
rop	-4563
▁Vil	-4564
▁drept	-4565
▁vokser	-4566
minn	-4567
▁Jes	-4568
▁forand	-4569
▁trykke	-4570
▁datteren	-4571
▁pan	-4572
▁usedvanlig	-4573
▁vanskelige	-4574
ignet	-4575
riktig	-4576
▁maten	-4577
▁ventet	-4578
▁merk	-4579
▁vises	-4580
forhold	-4581
▁Em	-4582
▁Bri	-4583
▁Lind	-4584
▁saken	-4585
▁underlig	-4586
▁vesentlig	-4587
mæ	-4588
▁Met	-4589
▁kop	-4590
▁ske	-4591
▁medlem	-4592
▁oppsummer	-4593
▁oppmerksomhet	-4594
▁sir	-4595
▁Intel	-4596
▁sakte	-4597
▁makter	-4598
▁nærmeste	-4599
▁sterkere	-4600
Be	-4601
bry	-4602
▁Sver	-4603
▁besøk	-4604
eker	-4605
▁uly	-4606
alske	-4607
avnet	-4608
kkert	-4609
round	-4610
▁Nick	-4611
▁symb	-4612
▁balanser	-4613
5-	-4614
avn	-4615
modus	-4616
▁sender	-4617
▁tendens	-4618
▁2»	-4619
▁MP	-4620
▁dron	-4621
lipp	-4622
▁erst	-4623
▁døden	-4624
▁begynne	-4625
▁Anmeldelse	-4626
▁Kl	-4627
▁Syn	-4628
årene	-4629
▁farge	-4630
▁atmosf	-4631
▁glemme	-4632
▁harmon	-4633
▁knapper	-4634
ius	-4635
▁bygget	-4636
▁tilvær	-4637
▁referanser	-4638
spel	-4639
▁Hver	-4640
punkter	-4641
▁strengt	-4642
▁ke	-4643
skar	-4644
▁sekund	-4645
1,	-4646
▁Anna	-4647
▁sinn	-4648
▁alder	-4649
▁kroppen	-4650
rets	-4651
▁verre	-4652
ektakul	-4653
▁innsikt	-4654
gjøre	-4655
▁hente	-4656
▁mobilt	-4657
▁støtter	-4658
▁unødven	-4659
▁ol	-4660
miljø	-4661
▁Nokia	-4662
▁fremmed	-4663
▁ok	-4664
▁harde	-4665
▁fysisk	-4666
▁versjonen	-4667
oom	-4668
▁McC	-4669
holdt	-4670
▁avslutning	-4671
plass	-4672
▁farlig	-4673
cho	-4674
▁By	-4675
akte	-4676
▁Jim	-4677
▁pul	-4678
▁Jenn	-4679
▁rike	-4680
▁kjapt	-4681
▁retter	-4682
▁CD	-4683
▁smil	-4684
▁Henrik	-4685
Mar	-4686
elske	-4687
serten	-4688
▁lun	-4689
▁mitt	-4690
▁Selve	-4691
▁maler	-4692
▁Anders	-4693
▁Scott	-4694
▁klang	-4695
oer	-4696
▁Dy	-4697
ilog	-4698
lede	-4699
▁kona	-4700
▁World	-4701
▁løfter	-4702
oney	-4703
▁praktisk	-4704
▁episodene	-4705
▁rap	-4706
▁blom	-4707
▁Filmens	-4708
▁lydbilde	-4709
fik	-4710
nem	-4711
▁Ole	-4712
▁lær	-4713
▁Stem	-4714
▁knapp	-4715
▁konsent	-4716
▁generelt	-4717
▁musikere	-4718
▁fro	-4719
▁nark	-4720
▁lanser	-4721
▁tilgang	-4722
▁kjed	-4723
▁melodier	-4724
eten	-4725
▁gud	-4726
gitar	-4727
▁karakterene	-4728
sle	-4729
side	-4730
▁mini	-4731
alisten	-4732
▁sentrum	-4733
ynt	-4734
likket	-4735
▁heste	-4736
▁automatisk	-4737
▁Ra	-4738
vidt	-4739
▁Dyl	-4740
▁ent	-4741
▁idet	-4742
▁rene	-4743
▁engas	-4744
skjermen	-4745
▁forhånd	-4746
cher	-4747
oret	-4748
▁Big	-4749
edien	-4750
▁fabel	-4751
▁grønn	-4752
▁selskap	-4753
▁tilfellet	-4754
ekan	-4755
fylt	-4756
▁BMW	-4757
undet	-4758
▁Hvem	-4759
▁Merc	-4760
▁Petter	-4761
▁sidene	-4762
▁utvilsomt	-4763
litt	-4764
▁ende	-4765
▁gradvis	-4766
▁nettbrett	-4767
6.	-4768
90	-4769
▁liter	-4770
▁jenter	-4771
▁Ev	-4772
▁194	-4773
▁demp	-4774
▁skinn	-4775
▁smule	-4776
▁tilfeldig	-4777
▁kompon	-4778
▁tilsvarende	-4779
▁agg	-4780
▁søn	-4781
▁Sport	-4782
▁Trond	-4783
▁koble	-4784
evin	-4785
unde	-4786
▁Band	-4787
▁gjest	-4788
▁instru	-4789
stillingen	-4790
bur	-4791
▁Ellers	-4792
▁originale	-4793
ikert	-4794
format	-4795
▁konsept	-4796
ona	-4797
▁Daniel	-4798
▁parall	-4799
▁Bokanmeldelse	-4800
dringen	-4801
ningkast	-4802
▁produsert	-4803
▁Net	-4804
▁Boka	-4805
▁berg	-4806
▁løse	-4807
▁nylig	-4808
▁fengsel	-4809
▁Bur	-4810
▁roller	-4811
▁spillere	-4812
▁kule	-4813
▁glimt	-4814
▁skyte	-4815
▁Jør	-4816
▁trygt	-4817
▁ligner	-4818
▁snarere	-4819
▁stasjon	-4820
▁alvorlig	-4821
▁inspirasjon	-4822
dder	-4823
▁mån	-4824
▁dybde	-4825
▁intet	-4826
▁enorme	-4827
▁oppgrader	-4828
▁Handlingen	-4829
▁Tri	-4830
▁mult	-4831
▁Aller	-4832
▁papir	-4833
▁kjæreste	-4834
▁Ve	-4835
▁Tur	-4836
▁sprø	-4837
ltra	-4838
▁tegneser	-4839
skl	-4840
øtt	-4841
▁dyre	-4842
▁delvis	-4843
▁omkring	-4844
▁overflaten	-4845
▁just	-4846
lighet	-4847
▁ektem	-4848
8,	-4849
ians	-4850
▁cent	-4851
▁oppsikt	-4852
▁nei	-4853
▁syl	-4854
lands	-4855
▁Bandet	-4856
▁nærmer	-4857
4,	-4858
▁sjø	-4859
motor	-4860
order	-4861
▁Tem	-4862
▁bror	-4863
▁radio	-4864
orth	-4865
100	-4866
mål	-4867
sku	-4868
▁AN	-4869
▁knall	-4870
▁Deretter	-4871
▁oversikt	-4872
ktet	-4873
ustri	-4874
imeter	-4875
fattende	-4876
▁ordentlig	-4877
iva	-4878
▁tyske	-4879
gere	-4880
▁sjølv	-4881
▁fremtid	-4882
Sk	-4883
dar	-4884
sper	-4885
tene	-4886
▁svake	-4887
knappen	-4888
ts	-4889
icro	-4890
▁middels	-4891
▁igjennom	-4892
eto	-4893
oment	-4894
skjell	-4895
▁prins	-4896
ologiske	-4897
rev	-4898
ssy	-4899
▁født	-4900
▁oppvek	-4901
▁Day	-4902
▁tøy	-4903
▁slekt	-4904
▁styrer	-4905
vi	-4906
rise	-4907
▁gjens	-4908
▁volum	-4909
▁intense	-4910
▁opplevde	-4911
▁opplevelsen	-4912
▁sammenlignet	-4913
isser	-4914
▁sangen	-4915
▁britisk	-4916
ti	-4917
▁ambisi	-4918
▁sosiale	-4919
Se	-4920
dinger	-4921
istene	-4922
▁forsvar	-4923
ote	-4924
▁Girl	-4925
▁Xbox	-4926
▁yngre	-4927
spe	-4928
▁bære	-4929
villig	-4930
▁merker	-4931
▁potens	-4932
▁fornøyd	-4933
▁hverken	-4934
▁spektakul	-4935
▁oppfølgeren	-4936
elu	-4937
▁Sal	-4938
ieren	-4939
▁redd	-4940
▁danske	-4941
▁stjerne	-4942
▁pen	-4943
illes	-4944
▁gate	-4945
▁klisjé	-4946
ET	-4947
▁plata	-4948
▁rapper	-4949
▁øl	-4950
▁Dra	-4951
▁friskt	-4952
ese	-4953
ksel	-4954
urope	-4955
▁enklere	-4956
stig	-4957
▁Låt	-4958
▁års	-4959
▁alko	-4960
▁funksjoner	-4961
ms	-4962
▁glir	-4963
▁platt	-4964
▁hyllest	-4965
ita	-4966
▁Up	-4967
▁fen	-4968
saker	-4969
▁Simon	-4970
▁Steve	-4971
▁orkester	-4972
kap	-4973
ota	-4974
▁Max	-4975
▁Nik	-4976
▁ins	-4977
▁rommet	-4978
▁kalles	-4979
▁kaster	-4980
Hz	-4981
ifer	-4982
▁nydelige	-4983
strer	-4984
▁likt	-4985
preget	-4986
▁redus	-4987
▁populære	-4988
▁Ron	-4989
▁evner	-4990
bane	-4991
neren	-4992
▁ford	-4993
▁tyng	-4994
følelsen	-4995
nny	-4996
oks	-4997
▁utst	-4998
▁cover	-4999
ån	-5000
very	-5001
▁slåss	-5002
ittelen	-5003
ulert	-5004
▁lyder	-5005
jeg	-5006
ved	-5007
ather	-5008
sløse	-5009
kvaliteten	-5010
øv	-5011
stall	-5012
▁invi	-5013
spirerte	-5014
▁hør	-5015
▁Live	-5016
alende	-5017
▁anony	-5018
▁stein	-5019
▁slippe	-5020
eres	-5021
▁dårlige	-5022
ON	-5023
▁søker	-5024
▁sammens	-5025
jet	-5026
ateg	-5027
▁speil	-5028
▁diverse	-5029
▁tilhører	-5030
▁skremmende	-5031
ffen	-5032
▁myn	-5033
ville	-5034
ism	-5035
▁Ing	-5036
▁bøl	-5037
mobil	-5038
▁privat	-5039
gir	-5040
▁søte	-5041
▁leken	-5042
▁starte	-5043
▁informasjon	-5044
hum	-5045
▁lover	-5046
▁mangel	-5047
▁centimeter	-5048
▁egenskaper	-5049
▁White	-5050
▁trygg	-5051
▁forventer	-5052
▁Ul	-5053
▁Pri	-5054
skapende	-5055
▁fungere	-5056
▁variert	-5057
▁samfunnet	-5058
brid	-5059
king	-5060
▁fredag	-5061
▁lerret	-5062
ivert	-5063
▁repli	-5064
▁engang	-5065
▁illust	-5066
fo	-5067
▁Lou	-5068
▁Særlig	-5069
ness	-5070
▁Lyd	-5071
▁slo	-5072
▁sym	-5073
klassen	-5074
▁sentrale	-5075
ube	-5076
▁wh	-5077
▁røde	-5078
▁marked	-5079
▁settes	-5080
▁trolig	-5081
▁Uansett	-5082
▁visuelt	-5083
▁dir	-5084
▁vand	-5085
rafikken	-5086
▁ettersom	-5087
▁Red	-5088
▁dis	-5089
ålmod	-5090
▁regi	-5091
rert	-5092
▁evig	-5093
▁lette	-5094
▁dens	-5095
▁løsning	-5096
we	-5097
▁Ju	-5098
▁vert	-5099
▁unngå	-5100
▁Hy	-5101
▁mas	-5102
▁vend	-5103
▁berøm	-5104
▁slapp	-5105
elighet	-5106
▁avgjør	-5107
▁usikker	-5108
▁engasjerende	-5109
afor	-5110
edre	-5111
▁Bu	-5112
▁love	-5113
▁meir	-5114
platen	-5115
▁Inter	-5116
ksjoner	-5117
▁bevisst	-5118
kn	-5119
undt	-5120
ugger	-5121
▁bringer	-5122
▁nøyaktig	-5123
▁tastaturet	-5124
tra	-5125
sons	-5126
øpig	-5127
olske	-5128
▁kjapp	-5129
rivende	-5130
▁katastro	-5131
ple	-5132
▁Ann	-5133
▁aff	-5134
anden	-5135
tur	-5136
▁Spe	-5137
unget	-5138
▁fanget	-5139
▁Albumet	-5140
▁nettverk	-5141
▁prosessor	-5142
▁Kr	-5143
annes	-5144
▁Kong	-5145
▁debu	-5146
▁uskyl	-5147
▁Musikk	-5148
▁ifølge	-5149
!»	-5150
▁utd	-5151
▁utvid	-5152
vensjon	-5153
gi	-5154
ield	-5155
▁kab	-5156
riske	-5157
▁satte	-5158
▁Riktig	-5159
▁revolusjon	-5160
bert	-5161
▁fing	-5162
▁mildt	-5163
▁russ	-5164
▁Kamera	-5165
▁samlet	-5166
▁opplevd	-5167
▁60	-5168
▁Va	-5169
▁Føl	-5170
▁innb	-5171
▁runde	-5172
▁fattig	-5173
▁system	-5174
redi	-5175
▁nært	-5176
▁stede	-5177
Re	-5178
▁Ky	-5179
tegr	-5180
osisjon	-5181
▁tanker	-5182
▁personlighet	-5183
▁elsk	-5184
▁hjør	-5185
▁neder	-5186
Jo	-5187
▁iPad	-5188
skland	-5189
▁velkjente	-5190
▁Hele	-5191
▁hender	-5192
▁jobbet	-5193
▁tilfelle	-5194
▁bekym	-5195
▁brukte	-5196
▁bærbare	-5197
▁Musikken	-5198
▁utviklet	-5199
▁størrelse	-5200
▁Sus	-5201
▁fans	-5202
nivået	-5203
▁gigant	-5204
▁kjempe	-5205
▁innebyg	-5206
oni	-5207
▁not	-5208
▁typer	-5209
løsningen	-5210
▁Rom	-5211
aksjon	-5212
kommen	-5213
▁skogen	-5214
▁grensen	-5215
hn	-5216
leks	-5217
▁tas	-5218
▁ansvar	-5219
▁kontin	-5220
▁lovende	-5221
ober	-5222
▁Hard	-5223
skapene	-5224
mme	-5225
▁Kim	-5226
▁kvart	-5227
▁ekster	-5228
▁knippe	-5229
▁opptak	-5230
▁knyttet	-5231
▁nordmenn	-5232
rell	-5233
▁Ros	-5234
▁Hall	-5235
▁hevn	-5236
▁ille	-5237
▁slem	-5238
▁øver	-5239
sikker	-5240
▁flest	-5241
▁klubb	-5242
▁bøkene	-5243
▁innrøm	-5244
▁vurder	-5245
▁Jackson	-5246
You	-5247
▁anty	-5248
▁situasjon	-5249
▁historiske	-5250
orm	-5251
▁pub	-5252
▁skog	-5253
▁intenst	-5254
▁måneder	-5255
▁strateg	-5256
▁modeller	-5257
▁elle	-5258
▁slått	-5259
▁undert	-5260
▁cm	-5261
▁pomp	-5262
svekkende	-5263
▁bortsett	-5264
▁bestemmer	-5265
▁kvaliteter	-5266
tatt	-5267
abelt	-5268
?»	-5269
god	-5270
▁fla	-5271
ismen	-5272
system	-5273
iversal	-5274
▁trommer	-5275
▁omfattende	-5276
▁Wa	-5277
▁Los	-5278
▁stere	-5279
▁naturen	-5280
▁tradisjonell	-5281
jerrig	-5282
▁Plate	-5283
▁grunnen	-5284
▁albumets	-5285
▁spilleren	-5286
oda	-5287
elin	-5288
▁Dead	-5289
▁levert	-5290
▁mystiske	-5291
!)	-5292
▁Lee	-5293
ylling	-5294
▁jobbe	-5295
tallets	-5296
▁problemet	-5297
▁verdenskrig	-5298
▁tog	-5299
▁heftig	-5300
▁populær	-5301
rud	-5302
sler	-5303
▁Aut	-5304
ittet	-5305
▁såkalt	-5306
▁kvaliteten	-5307
uar	-5308
amma	-5309
offer	-5310
▁religi	-5311
▁henhold	-5312
▁humoren	-5313
fli	-5314
ofil	-5315
▁fred	-5316
▁salen	-5317
▁grenser	-5318
▁fryktelig	-5319
ze	-5320
▁kle	-5321
▁midten	-5322
▁temper	-5323
bro	-5324
vei	-5325
▁møtes	-5326
▁interesse	-5327
ello	-5328
▁maks	-5329
astene	-5330
▁interi	-5331
▁tidspunkt	-5332
▁Sistnevnte	-5333
▁takk	-5334
▁komprom	-5335
▁mystisk	-5336
▁Skuespillere	-5337
▁Audi	-5338
▁tale	-5339
▁tiår	-5340
rap	-5341
▁plat	-5342
▁langs	-5343
▁varer	-5344
▁Ninten	-5345
▁fortvil	-5346
▁materiale	-5347
nden	-5348
▁event	-5349
▁antall	-5350
▁modell	-5351
ref	-5352
anen	-5353
▁peke	-5354
▁tilt	-5355
stjerne	-5356
▁konkurran	-5357
amm	-5358
com	-5359
▁60-	-5360
▁flyter	-5361
▁karakterer	-5362
My	-5363
▁Bak	-5364
▁sosial	-5365
▁manuset	-5366
▁kommersi	-5367
▁programmet	-5368
▁spørsmålet	-5369
▁Hot	-5370
▁Out	-5371
▁naz	-5372
▁Wars	-5373
▁identitet	-5374
▁løsninger	-5375
osi	-5376
▁Bir	-5377
▁Cre	-5378
▁uav	-5379
▁håper	-5380
konsert	-5381
bø	-5382
▁kid	-5383
▁meter	-5384
▁21	-5385
rekt	-5386
▁jevnt	-5387
ape	-5388
vinner	-5389
▁erfaring	-5390
▁pus	-5391
fallende	-5392
▁etterpå	-5393
amme	-5394
ords	-5395
▁Air	-5396
paret	-5397
ugg	-5398
kost	-5399
skur	-5400
▁håpe	-5401
baserte	-5402
▁ytterligere	-5403
▁hekt	-5404
legger	-5405
aliforn	-5406
personen	-5407
▁West	-5408
rasjon	-5409
▁grepet	-5410
▁kombinasjon	-5411
ID	-5412
▁OK	-5413
▁glemt	-5414
▁George	-5415
▁stikker	-5416
▁fortelles	-5417
0.	-5418
slå	-5419
▁hode	-5420
▁stud	-5421
▁ideer	-5422
▁innven	-5423
sse	-5424
▁tida	-5425
▁vilje	-5426
▁Skjermen	-5427
Sp	-5428
ffet	-5429
onen	-5430
▁Ung	-5431
▁ytterst	-5432
▁menneskelige	-5433
boy	-5434
ora	-5435
▁bygd	-5436
ologien	-5437
▁ryggen	-5438
▁betydelig	-5439
cenen	-5440
polit	-5441
serer	-5442
▁Midt	-5443
▁Store	-5444
▁Johnny	-5445
▁grader	-5446
▁festival	-5447
▁kvinnelige	-5448
ogn	-5449
▁24	-5450
▁dam	-5451
▁glatt	-5452
▁huske	-5453
▁baksiden	-5454
▁forvente	-5455
▁henge	-5456
▁smarte	-5457
asi	-5458
▁36	-5459
▁Lyn	-5460
▁falt	-5461
▁ge	-5462
▁råd	-5463
meter	-5464
ganger	-5465
▁fylle	-5466
▁lokal	-5467
bon	-5468
▁jub	-5469
blant	-5470
fron	-5471
▁Olav	-5472
▁sant	-5473
▁språket	-5474
▁spesielle	-5475
usin	-5476
▁Boken	-5477
▁stjel	-5478
▁overdre	-5479
etooth	-5480
isa	-5481
evær	-5482
tten	-5483
ullet	-5484
sfulle	-5485
▁Dylan	-5486
▁befri	-5487
organ	-5488
▁krav	-5489
▁Music	-5490
▁Morten	-5491
▁skarpe	-5492
sette	-5493
▁Karl	-5494
▁kreativ	-5495
AM	-5496
rof	-5497
▁omf	-5498
▁dvel	-5499
illing	-5500
▁motiv	-5501
▁faktum	-5502
▁motsatt	-5503
▁ISO	-5504
▁com	-5505
talls	-5506
▁liden	-5507
▁lengst	-5508
▁tommer	-5509
▁batteri	-5510
▁serverer	-5511
▁programmer	-5512
▁por	-5513
veier	-5514
▁klim	-5515
▁bidrag	-5516
spillene	-5517
▁kvinnen	-5518
▁kontroller	-5519
▁Vok	-5520
▁nysg	-5521
▁hester	-5522
▁Sverige	-5523
JØ	-5524
bygg	-5525
tete	-5526
▁Rad	-5527
▁Sig	-5528
▁mak	-5529
▁syr	-5530
saken	-5531
▁Bord	-5532
▁Nett	-5533
▁gjem	-5534
▁dame	-5535
▁relev	-5536
▁stakk	-5537
▁tenår	-5538
▁fantasi	-5539
▁innsats	-5540
venninnen	-5541
▁perfekte	-5542
▁posisjon	-5543
▁batteriet	-5544
▁uke	-5545
abeth	-5546
itten	-5547
▁humør	-5548
▁vennskap	-5549
▁Ger	-5550
▁Joe	-5551
▁Liv	-5552
▁Way	-5553
▁lavt	-5554
▁kreft	-5555
▁kunnskap	-5556
▁spesiell	-5557
▁forventninger	-5558
appen	-5559
▁unødvendig	-5560
▁sannsynligvis	-5561
▁røy	-5562
▁Knut	-5563
▁føre	-5564
▁garan	-5565
▁England	-5566
egnet	-5567
øvrig	-5568
▁rapp	-5569
▁gutter	-5570
▁tankene	-5571
▁politiet	-5572
▁GT	-5573
▁ca	-5574
▁City	-5575
▁Stone	-5576
▁mente	-5577
gra	-5578
▁Esp	-5579
kraft	-5580
snivå	-5581
ffende	-5582
▁milit	-5583
▁halvdel	-5584
ta	-5585
uk	-5586
▁195	-5587
ørdag	-5588
▁leke	-5589
ikerte	-5590
▁ordet	-5591
▁DS	-5592
▁git	-5593
▁smått	-5594
▁sesongen	-5595
▁betydning	-5596
▁servitøren	-5597
EF	-5598
▁.	-5599
lend	-5600
▁Sånn	-5601
▁bekre	-5602
▁sving	-5603
OS	-5604
▁Di	-5605
▁kri	-5606
▁new	-5607
▁juster	-5608
▁Richard	-5609
mø	-5610
ory	-5611
»).	-5612
▁80	-5613
▁Time	-5614
▁Galax	-5615
▁kjenn	-5616
▁allsang	-5617
ament	-5618
▁druk	-5619
▁omgang	-5620
▁kvalitets	-5621
▁22	-5622
▁vek	-5623
uller	-5624
scener	-5625
▁solide	-5626
▁trodde	-5627
▁piksler	-5628
▁replikker	-5629
▁Bj	-5630
▁ordin	-5631
▁integr	-5632
▁gjennomsnitt	-5633
ums	-5634
▁MB	-5635
▁Hum	-5636
ansjen	-5637
▁ramme	-5638
▁morgen	-5639
▁testen	-5640
▁forstyr	-5641
enk	-5642
ope	-5643
bud	-5644
▁Hennes	-5645
åre	-5646
▁OG	-5647
▁piz	-5648
▁stikk	-5649
▁oppfinn	-5650
Ar	-5651
ida	-5652
ions	-5653
ørsm	-5654
▁nede	-5655
▁oppnå	-5656
▁gruppe	-5657
leggende	-5658
▁Mercedes	-5659
▁omgivelsene	-5660
vand	-5661
▁Ant	-5662
ansene	-5663
barhet	-5664
▁Grand	-5665
▁mørkt	-5666
▁samling	-5667
▁såkalte	-5668
-1	-5669
▁kol	-5670
▁lyse	-5671
essige	-5672
slaget	-5673
visning	-5674
▁ferske	-5675
fortelling	-5676
allen	-5677
okker	-5678
▁taket	-5679
▁kollega	-5680
▁uvanlig	-5681
dte	-5682
▁Fr	-5683
demp	-5684
▁gjennomgående	-5685
Le	-5686
▁Kort	-5687
ometer	-5688
▁Galaxy	-5689
▁hiphop	-5690
shistorie	-5691
▁komplett	-5692
uf	-5693
beg	-5694
alog	-5695
gene	-5696
▁Emil	-5697
▁gjester	-5698
▁omgivelser	-5699
eløs	-5700
odig	-5701
sept	-5702
▁Dar	-5703
▁Mal	-5704
▁May	-5705
▁Meg	-5706
▁karrieren	-5707
▁utgivelse	-5708
blå	-5709
okrat	-5710
▁vell	-5711
▁flykt	-5712
elefonen	-5713
▁litterære	-5714
▁hestekrefter	-5715
øt	-5716
pte	-5717
stat	-5718
søkt	-5719
engen	-5720
▁lyset	-5721
▁grundig	-5722
▁minnekort	-5723
▁romantisk	-5724
GB	-5725
▁your	-5726
ianter	-5727
▁hoppe	-5728
▁leker	-5729
▁Batter	-5730
ærlighet	-5731
ato	-5732
▁Dr	-5733
▁Col	-5734
vidde	-5735
▁Asus	-5736
▁spøk	-5737
▁tegn	-5738
▁filosof	-5739
▁arbeider	-5740
▁avhengig	-5741
▁spenningen	-5742
alder	-5743
raften	-5744
▁bakte	-5745
▁femte	-5746
▁henholdsvis	-5747
▁Bow	-5748
ampyr	-5749
ompag	-5750
▁Vest	-5751
estern	-5752
tegnede	-5753
▁historisk	-5754
rel	-5755
▁Fri	-5756
føres	-5757
▁rolig	-5758
▁flytter	-5759
▁firehjul	-5760
ail	-5761
dem	-5762
▁Ein	-5763
▁vegg	-5764
▁utseende	-5765
▁27	-5766
▁Famil	-5767
▁filmet	-5768
▁vanvitt	-5769
▁formidle	-5770
▁hovedrolle	-5771
kner	-5772
ppes	-5773
øyer	-5774
▁nødt	-5775
▁måned	-5776
▁myster	-5777
▁nyanser	-5778
sem	-5779
repet	-5780
▁Best	-5781
▁plag	-5782
igheter	-5783
▁drikke	-5784
▁Williams	-5785
Don	-5786
rie	-5787
uth	-5788
▁Åp	-5789
▁Mur	-5790
skinn	-5791
▁Leon	-5792
▁pause	-5793
ern	-5794
søk	-5795
▁Rev	-5796
▁fær	-5797
lever	-5798
▁Goog	-5799
▁Hadde	-5800
ripende	-5801
bra	-5802
esser	-5803
sløst	-5804
stemme	-5805
▁Bruce	-5806
▁avslutter	-5807
uel	-5808
hodet	-5809
æring	-5810
▁Ster	-5811
▁miste	-5812
kten	-5813
mord	-5814
▁Sar	-5815
▁Skj	-5816
▁fange	-5817
▁andres	-5818
▁slaget	-5819
▁stilig	-5820
▁forstand	-5821
▁lignende	-5822
▁kjøkkenet	-5823
▁bokstavelig	-5824
uset	-5825
start	-5826
opptak	-5827
▁Enkel	-5828
▁Jason	-5829
estaurant	-5830
▁nåtid	-5831
▁fiender	-5832
ddet	-5833
fakt	-5834
vind	-5835
▁Dog	-5836
eback	-5837
▁Thor	-5838
▁grat	-5839
▁beher	-5840
▁troll	-5841
▁president	-5842
▁grunnleggende	-5843
jo	-5844
førte	-5845
ikerne	-5846
alister	-5847
▁beskriver	-5848
▁noko	-5849
▁Motor	-5850
unch	-5851
▁prim	-5852
▁regn	-5853
▁krigs	-5854
musikken	-5855
▁innimellom	-5856
No	-5857
mpe	-5858
▁bir	-5859
▁fag	-5860
usikk	-5861
▁påvir	-5862
▁dukket	-5863
▁klisjeer	-5864
▁Bluetooth	-5865
▁sikkerhet	-5866
▁3,	-5867
▁reag	-5868
sjangeren	-5869
.)	-5870
røn	-5871
▁Leg	-5872
▁Land	-5873
▁last	-5874
▁bredt	-5875
▁kjørt	-5876
▁absurd	-5877
▁bitter	-5878
▁hopper	-5879
rive	-5880
▁Cra	-5881
▁dit	-5882
▁bytte	-5883
▁mektig	-5884
EST	-5885
▁Luc	-5886
slått	-5887
▁(199	-5888
▁Godt	-5889
forstå	-5890
▁Heart	-5891
▁lavmæ	-5892
▁verdi	-5893
▁skritt	-5894
▁lagring	-5895
▁Ei	-5896
uni	-5897
radi	-5898
▁Fro	-5899
▁lot	-5900
fylte	-5901
▁0,	-5902
▁vitt	-5903
▁novel	-5904
ningsvis	-5905
▁replikk	-5906
▁realistisk	-5907
▁Ye	-5908
host	-5909
ktøy	-5910
▁mand	-5911
▁seig	-5912
▁uker	-5913
rommet	-5914
▁Berlin	-5915
▁Serien	-5916
▁veggen	-5917
ST	-5918
line	-5919
▁Bry	-5920
iftet	-5921
▁teste	-5922
odd	-5923
▁Ryan	-5924
▁låta	-5925
▁myke	-5926
verdenen	-5927
▁skildring	-5928
eden	-5929
haug	-5930
inst	-5931
▁opprør	-5932
▁Angeles	-5933
▁overvel	-5934
▁skinner	-5935
▁tilsted	-5936
▁ekteskap	-5937
▁anledning	-5938
ico	-5939
aturen	-5940
▁universet	-5941
yst	-5942
esjon	-5943
▁hurt	-5944
▁lave	-5945
▁drømme	-5946
▁monster	-5947
▁motoren	-5948
▁materialet	-5949
▁Pass	-5950
henger	-5951
▁effekter	-5952
▁dårligere	-5953
▁foreldrene	-5954
ving	-5955
▁Adam	-5956
▁Jonas	-5957
▁damer	-5958
▁stående	-5959
▁superhelt	-5960
oku	-5961
ose	-5962
uld	-5963
▁DOM	-5964
treden	-5965
▁Nilsen	-5966
▁kompakt	-5967
gin	-5968
▁(2	-5969
▁Fa	-5970
▁ku	-5971
▁hop	-5972
prest	-5973
right	-5974
▁Fant	-5975
astisk	-5976
strengt	-5977
▁åpenbare	-5978
▁'	-5979
ialt	-5980
▁Pop	-5981
▁mun	-5982
▁tilbyr	-5983
▁grunner	-5984
▁modellen	-5985
):	-5986
Man	-5987
aser	-5988
lekt	-5989
▁Jam	-5990
anner	-5991
▁dose	-5992
eksjon	-5993
▁skjul	-5994
ho	-5995
▁fug	-5996
▁ånd	-5997
▁Game	-5998
▁lure	-5999
▁poet	-6000
▁tynn	-6001
▁landets	-6002
piske	-6003
▁Brit	-6004
▁nitt	-6005
▁ligge	-6006
▁europe	-6007
▁mørket	-6008
▁Riktignok	-6009
bes	-6010
lyst	-6011
▁Gro	-6012
▁Sky	-6013
▁Veg	-6014
▁mal	-6015
▁back	-6016
▁helvete	-6017
▁Nintendo	-6018
▁variasjon	-6019
▁ambisjoner	-6020
6,	-6021
mas	-6022
▁LG	-6023
ibel	-6024
jord	-6025
▁With	-6026
dommen	-6027
▁kjend	-6028
▁Person	-6029
▁fenomen	-6030
▁gitarist	-6031
▁utfordrende	-6032
▁elen	-6033
▁Lille	-6034
▁dypere	-6035
▁innholdet	-6036
▁versjoner	-6037
▁Plateanmeldelse	-6038
borg	-6039
fant	-6040
▁Bond	-6041
▁tåler	-6042
▁billed	-6043
▁skuffet	-6044
▁tenåring	-6045
▁foreløpig	-6046
▁reflekter	-6047
▁utspiller	-6048
▁Tot	-6049
▁rut	-6050
▁overra	-6051
▁forvand	-6052
▁garantert	-6053
sd	-6054
LER	-6055
▁Gen	-6056
▁indiv	-6057
▁helter	-6058
zy	-6059
esn	-6060
▁Cla	-6061
sessen	-6062
▁raser	-6063
▁borger	-6064
▁positivt	-6065
glem	-6066
▁Good	-6067
▁util	-6068
▁Disney	-6069
▁tilbak	-6070
dringene	-6071
▁magiske	-6072
▁skjønne	-6073
▁fortjent	-6074
▁kveldens	-6075
▁Bordvenninnen	-6076
▁Com	-6077
▁Kun	-6078
▁bom	-6079
løser	-6080
▁anno	-6081
▁bemer	-6082
▁skand	-6083
▁etterl	-6084
▁famili	-6085
▁linjer	-6086
▁retten	-6087
▁lykkelig	-6088
BEF	-6089
illi	-6090
▁KJØ	-6091
BEFAL	-6092
appet	-6093
asjen	-6094
agende	-6095
▁nyere	-6096
▁affære	-6097
▁ANBEFAL	-6098
lad	-6099
lant	-6100
vard	-6101
▁øst	-6102
▁Blood	-6103
▁Johan	-6104
▁flukt	-6105
serende	-6106
▁regissert	-6107
▁øyeblikket	-6108
ili	-6109
yer	-6110
▁Ni	-6111
evet	-6112
▁HAND	-6113
punktet	-6114
▁innblikk	-6115
▁Carl	-6116
▁Step	-6117
▁flyttet	-6118
▁skjebne	-6119
▁Tyskland	-6120
▁sirk	-6121
▁krang	-6122
▁Spring	-6123
▁daglig	-6124
▁hotell	-6125
▁kreative	-6126
▁produksjonen	-6127
7,	-6128
zen	-6129
sche	-6130
ering	-6131
▁Sing	-6132
▁havet	-6133
▁total	-6134
▁utenom	-6135
▁formidler	-6136
grid	-6137
opper	-6138
▁KJØP	-6139
▁luks	-6140
universet	-6141
▁mikrofon	-6142
▁teknisk	-6143
festivalen	-6144
ikre	-6145
▁Ray	-6146
▁Sun	-6147
▁myk	-6148
▁indie	-6149
▁sendt	-6150
▁varmt	-6151
▁åpnet	-6152
▁verdig	-6153
▁fremste	-6154
All	-6155
▁disku	-6156
▁innle	-6157
▁frihet	-6158
▁overraskelse	-6159
alia	-6160
ungen	-6161
▁tysk	-6162
valget	-6163
▁færre	-6164
▁gjenopp	-6165
▁resultat	-6166
▁utforske	-6167
▁prosjektet	-6168
▁forskjellen	-6169
▁OM	-6170
inns	-6171
▁PCen	-6172
▁Wall	-6173
amerik	-6174
basert	-6175
▁kapittel	-6176
▁allikevel	-6177
▁interessert	-6178
▁Ze	-6179
edig	-6180
▁Life	-6181
▁elske	-6182
▁jenta	-6183
▁tilfører	-6184
sek	-6185
stilt	-6186
▁kateg	-6187
▁forfer	-6188
▁uventet	-6189
▁perspektiv	-6190
▁tydeligvis	-6191
▁simp	-6192
▁byens	-6193
▁pappa	-6194
▁henter	-6195
▁automat	-6196
▁avsløre	-6197
▁politim	-6198
▁singelen	-6199
▁Gam	-6200
▁LCD	-6201
▁øye	-6202
onger	-6203
▁salt	-6204
▁skry	-6205
sdrift	-6206
▁gutta	-6207
▁kjøper	-6208
▁32	-6209
bygger	-6210
▁kosty	-6211
▁komisk	-6212
inspirert	-6213
ela	-6214
olet	-6215
▁Gyl	-6216
atret	-6217
▁HDMI	-6218
▁Trum	-6219
▁Kevin	-6220
agelige	-6221
▁nyeste	-6222
▁kjæresten	-6223
asp	-6224
▁("	-6225
▁EP	-6226
sling	-6227
▁inder	-6228
▁suver	-6229
▁singel	-6230
▁vender	-6231
▁åttitall	-6232
▁avanserte	-6233
▁kommentar	-6234
umm	-6235
▁Tro	-6236
▁rob	-6237
▁upå	-6238
rettene	-6239
▁rekker	-6240
▁gammelt	-6241
UV	-6242
alo	-6243
smann	-6244
▁skjem	-6245
▁måltid	-6246
▁amerikan	-6247
▁understreker	-6248
▁500	-6249
ugust	-6250
▁akkompag	-6251
Vi	-6252
head	-6253
▁kjer	-6254
▁gutten	-6255
▁merkes	-6256
▁kylling	-6257
▁områder	-6258
▁punkter	-6259
pak	-6260
▁nære	-6261
ringen	-6262
▁egnet	-6263
▁flink	-6264
▁linje	-6265
merican	-6266
▁Justin	-6267
▁valgte	-6268
▁slutter	-6269
ylor	-6270
▁vinne	-6271
▁konsep	-6272
inspirerte	-6273
▁Dahl	-6274
▁Fakt	-6275
▁Frem	-6276
▁utelu	-6277
uligheter	-6278
▁forøvrig	-6279
▁oppvekst	-6280
▁spennings	-6281
▁Hon	-6282
▁High	-6283
▁fryd	-6284
▁musk	-6285
▁punk	-6286
▁kinos	-6287
retning	-6288
▁flytte	-6289
▁underholdnings	-6290
imen	-6291
▁misly	-6292
▁sentral	-6293
▁Rod	-6294
scenen	-6295
▁barnet	-6296
▁William	-6297
▁kommende	-6298
▁skildres	-6299
hjelp	-6300
▁Beat	-6301
▁Folk	-6302
tember	-6303
▁biter	-6304
▁lytte	-6305
▁navig	-6306
▁friske	-6307
▁leveres	-6308
▁Kna	-6309
ience	-6310
▁jevn	-6311
▁løst	-6312
▁monot	-6313
▁sivil	-6314
▁livets	-6315
▁originalen	-6316
ahl	-6317
lyd	-6318
onna	-6319
vice	-6320
▁Nye	-6321
onder	-6322
▁heng	-6323
anlegg	-6324
▁kapit	-6325
alifornia	-6326
▁kvinnene	-6327
▁Frankrike	-6328
It	-6329
cc	-6330
ani	-6331
▁Gi	-6332
▁søm	-6333
ktige	-6334
▁mord	-6335
▁lider	-6336
▁kjemper	-6337
▁serveres	-6338
oke	-6339
test	-6340
trende	-6341
▁dansk	-6342
trykket	-6343
▁Potter	-6344
▁marker	-6345
▁omsorg	-6346
▁høyeste	-6347
▁konstant	-6348
▁befriende	-6349
uls	-6350
smak	-6351
▁idi	-6352
lagte	-6353
▁Mike	-6354
▁øvrige	-6355
▁forblir	-6356
▁framtid	-6357
▁tydelige	-6358
æl	-6359
▁tår	-6360
▁Sven	-6361
▁gift	-6362
▁Teater	-6363
▁element	-6364
▁foretre	-6365
okumenter	-6366
▁historiene	-6367
▁ubehagelig	-6368
ary	-6369
▁Cru	-6370
▁ded	-6371
▁Boys	-6372
▁tonen	-6373
acebook	-6374
▁likner	-6375
▁preger	-6376
▁skolen	-6377
ensielle	-6378
modellen	-6379
▁ingredi	-6380
▁engelske	-6381
▁spillene	-6382
▁Kristians	-6383
▁animasjons	-6384
▁troverdighet	-6385
▁4.	-6386
▁Boy	-6387
▁Mol	-6388
▁ære	-6389
utgiv	-6390
▁Jens	-6391
▁Song	-6392
▁kaos	-6393
motoren	-6394
stillende	-6395
▁skikkelse	-6396
riff	-6397
▁Ham	-6398
▁stiv	-6399
▁fulgt	-6400
▁parad	-6401
▁munnen	-6402
riskende	-6403
▁Publikum	-6404
▁tekniske	-6405
▁klassiker	-6406
▁skuffende	-6407
▁forestilling	-6408
ua	-6409
▁kaste	-6410
asy	-6411
ril	-6412
små	-6413
tein	-6414
▁Kid	-6415
▁LES	-6416
arden	-6417
▁Core	-6418
▁bryr	-6419
artist	-6420
▁Jacob	-6421
▁verst	-6422
▁Forfatteren	-6423
råd	-6424
▁Vis	-6425
▁regne	-6426
▁symfon	-6427
▁tålmod	-6428
▁mengder	-6429
ilde	-6430
ilevet	-6431
▁Marie	-6432
▁klipp	-6433
▁skuespill	-6434
▁gammeldags	-6435
▁Ag	-6436
▁Allen	-6437
▁Norsk	-6438
stander	-6439
▁lekker	-6440
▁opptil	-6441
▁begiven	-6442
▁variant	-6443
▁forholdsvis	-6444
9,-	-6445
bergs	-6446
revet	-6447
strid	-6448
▁rekl	-6449
▁steg	-6450
asitet	-6451
strekk	-6452
▁brilj	-6453
skillig	-6454
▁kastet	-6455
olas	-6456
stoff	-6457
▁Mest	-6458
▁roll	-6459
▁Island	-6460
▁grusom	-6461
▁stilen	-6462
▁originalt	-6463
lat	-6464
mag	-6465
øye	-6466
▁sep	-6467
ikalsk	-6468
▁format	-6469
▁voldsomme	-6470
▁tj	-6471
elli	-6472
▁Imp	-6473
▁ped	-6474
▁snur	-6475
▁trang	-6476
▁observ	-6477
▁brutale	-6478
▁brutalt	-6479
▁rollene	-6480
▁journalist	-6481
We	-6482
rue	-6483
hjem	-6484
▁tang	-6485
▁bunnen	-6486
▁lørdag	-6487
▁sjeldent	-6488
IA	-6489
sli	-6490
rins	-6491
▁Spis	-6492
▁besø	-6493
▁selge	-6494
▁objekt	-6495
▁overraskelser	-6496
▁HP	-6497
leis	-6498
▁sjef	-6499
▁hyster	-6500
▁skrudd	-6501
▁metafor	-6502
▁ytelsen	-6503
▁Kameraet	-6504
▁strekker	-6505
▁ANBEFALTE	-6506
▁AM	-6507
slende	-6508
▁endre	-6509
▁peker	-6510
▁nedover	-6511
▁arbeidet	-6512
ras	-6513
stemt	-6514
▁Wilson	-6515
ografien	-6516
▁fysiske	-6517
▁hendene	-6518
▁voldsomt	-6519
▁nysgjerrig	-6520
▁legges	-6521
▁terningkast	-6522
gne	-6523
bord	-6524
ford	-6525
krim	-6526
jevel	-6527
▁with	-6528
▁kalde	-6529
▁spion	-6530
▁uhyre	-6531
▁levere	-6532
▁legendar	-6533
▁lerretet	-6534
70	-6535
ec	-6536
brit	-6537
vene	-6538
sjett	-6539
▁zomb	-6540
▁fornu	-6541
▁utført	-6542
▁aggress	-6543
▁soldater	-6544
ots	-6545
ous	-6546
skom	-6547
▁Art	-6548
▁Din	-6549
▁Vid	-6550
▁lad	-6551
Black	-6552
olden	-6553
ptisk	-6554
▁femin	-6555
▁Larsen	-6556
▁avslører	-6557
▁profesjon	-6558
▁Bad	-6559
▁past	-6560
▁Ingrid	-6561
▁stødig	-6562
føringen	-6563
karakter	-6564
▁sympatisk	-6565
▁situasjonen	-6566
fel	-6567
»),	-6568
ells	-6569
▁sommeren	-6570
lu	-6571
temp	-6572
▁Micro	-6573
▁internasjonale	-6574
▁DJ	-6575
Love	-6576
roll	-6577
▁Green	-6578
▁løper	-6579
▁risik	-6580
▁skapte	-6581
▁dramaet	-6582
▁instrumenter	-6583
▁uk	-6584
gitt	-6585
▁kuli	-6586
univers	-6587
▁skumle	-6588
riks	-6589
range	-6590
▁fansen	-6591
▁vekker	-6592
▁trådløst	-6593
pri	-6594
▁sum	-6595
field	-6596
▁dyst	-6597
▁miks	-6598
▁nøye	-6599
tering	-6600
▁bevis	-6601
▁Allerede	-6602
▁anmeldelsen	-6603
gyl	-6604
▁Pre	-6605
biter	-6606
veien	-6607
▁kald	-6608
▁magisk	-6609
▁lidenskap	-6610
8-	-6611
SÅ	-6612
bak	-6613
usk	-6614
▁Hill	-6615
▁intim	-6616
▁Harris	-6617
▁trykker	-6618
▁isl	-6619
geren	-6620
▁kilo	-6621
▁solgt	-6622
skrevet	-6623
▁imponert	-6624
▁avsluttende	-6625
cus	-6626
▁Law	-6627
▁Pet	-6628
▁Josh	-6629
▁OGSÅ	-6630
ktober	-6631
▁angst	-6632
▁redder	-6633
▁valget	-6634
flix	-6635
hard	-6636
råde	-6637
sing	-6638
▁lyn	-6639
▁dele	-6640
jær	-6641
drik	-6642
▁lade	-6643
▁Stein	-6644
▁likte	-6645
▁maskiner	-6646
6-	-6647
hal	-6648
▁am	-6649
▁300	-6650
▁Neil	-6651
▁klok	-6652
mentet	-6653
▁Filman	-6654
▁budskap	-6655
▁poetisk	-6656
ipe	-6657
ting	-6658
▁San	-6659
▁bob	-6660
▁val	-6661
▁Magn	-6662
▁virt	-6663
▁triks	-6664
▁kjerne	-6665
▁desperat	-6666
▁kilometer	-6667
fre	-6668
pan	-6669
▁MAR	-6670
▁uen	-6671
bærer	-6672
dommer	-6673
▁laste	-6674
▁Netflix	-6675
elg	-6676
▁She	-6677
bladet	-6678
▁assosi	-6679
▁showet	-6680
dan	-6681
irka	-6682
okka	-6683
▁Toy	-6684
filer	-6685
▁Google	-6686
▁lesere	-6687
▁hjerter	-6688
To	-6689
hør	-6690
▁Nils	-6691
▁Tomm	-6692
▁stopper	-6693
▁designet	-6694
kons	-6695
ellekt	-6696
▁enorm	-6697
▁angrep	-6698
▁prosess	-6699
▁utgaven	-6700
▁oppdaget	-6701
▁velkjent	-6702
olid	-6703
ular	-6704
▁Val	-6705
▁eld	-6706
▁fat	-6707
klart	-6708
--	-6709
Su	-6710
oon	-6711
rak	-6712
itive	-6713
▁Brad	-6714
▁artig	-6715
▁fulgte	-6716
▁hensyn	-6717
▁ukjent	-6718
spunktet	-6719
▁detaljene	-6720
gam	-6721
oten	-6722
▁pur	-6723
▁Home	-6724
▁rytm	-6725
settet	-6726
▁uttry	-6727
▁sukker	-6728
▁verket	-6729
▁åpnings	-6730
▁Fu	-6731
▁mars	-6732
▁tykk	-6733
▁Mario	-6734
▁faste	-6735
▁enormt	-6736
▁skildret	-6737
▁Full	-6738
▁metall	-6739
▁dessert	-6740
duksjonen	-6741
▁vidunder	-6742
▁Dark	-6743
▁Tony	-6744
▁spenn	-6745
▁fungerte	-6746
▁romantiske	-6747
▁Filmanmeldelse	-6748
ini	-6749
iken	-6750
ward	-6751
▁Part	-6752
sfullt	-6753
▁gårde	-6754
▁regist	-6755
prosessor	-6756
▁engasjem	-6757
▁Restaurant	-6758
nesk	-6759
▁Roy	-6760
▁grov	-6761
▁syns	-6762
▁ordene	-6763
▁pinlig	-6764
▁fremfor	-6765
▁pensjon	-6766
▁nittitall	-6767
pes	-6768
rede	-6769
skon	-6770
▁myt	-6771
▁Indi	-6772
▁beun	-6773
ington	-6774
▁endte	-6775
▁lekre	-6776
▁tegne	-6777
▁Norske	-6778
prosjekt	-6779
▁aldeles	-6780
▁oppgitt	-6781
▁oppgjør	-6782
▁avansert	-6783
strekkelig	-6784
røk	-6785
øya	-6786
▁Mat	-6787
▁Sve	-6788
▁pir	-6789
istan	-6790
▁Kurt	-6791
▁lytt	-6792
▁trom	-6793
steden	-6794
▁endel	-6795
▁kidna	-6796
▁presse	-6797
kontroll	-6798
▁Kristiansand	-6799
11	-6800
vist	-6801
▁sjå	-6802
faren	-6803
årige	-6804
▁dype	-6805
▁Jesus	-6806
▁drepe	-6807
▁hybrid	-6808
▁vitner	-6809
▁himmelen	-6810
▁politikk	-6811
deb	-6812
▁fo	-6813
▁Jar	-6814
ANSEN	-6815
rerer	-6816
▁Golf	-6817
▁ring	-6818
inerer	-6819
▁gleder	-6820
▁nettet	-6821
isterende	-6822
▁involver	-6823
▁strykere	-6824
▁persongaller	-6825
oria	-6826
▁Rec	-6827
▁løfte	-6828
elleren	-6829
vanlige	-6830
▁gripende	-6831
▁middelmå	-6832
rab	-6833
etti	-6834
rives	-6835
▁Gunn	-6836
▁tyngde	-6837
▁Sjanger	-6838
▁konkret	-6839
▁poenget	-6840
▁innsiden	-6841
▁sittende	-6842
inntrykket	-6843
▁latterlig	-6844
▁35	-6845
▁we	-6846
slet	-6847
▁ført	-6848
▁Taylor	-6849
▁området	-6850
▁premiere	-6851
▁fortellinger	-6852
▁representerer	-6853
▁Kjø	-6854
▁sil	-6855
▁tyr	-6856
leren	-6857
urist	-6858
▁tolv	-6859
▁jorden	-6860
▁vampyr	-6861
▁ukjente	-6862
▁Kristian	-6863
▁skjermer	-6864
▁konvensjon	-6865
▁Odd	-6866
▁kjær	-6867
▁megap	-6868
▁lokalet	-6869
▁september	-6870
▁forfriskende	-6871
døde	-6872
aland	-6873
råder	-6874
serier	-6875
▁forut	-6876
▁middag	-6877
lege	-6878
▁jød	-6879
arten	-6880
setet	-6881
etning	-6882
stedet	-6883
▁autor	-6884
▁begra	-6885
▁tyder	-6886
▁bakken	-6887
▁partier	-6888
Universal	-6889
▁retninger	-6890
▁debutalbumet	-6891
fold	-6892
ouch	-6893
▁kore	-6894
▁utgitt	-6895
▁avgjørende	-6896
▁gjenkjennelig	-6897
ely	-6898
▁Li	-6899
▁utsp	-6900
retten	-6901
ørings	-6902
▁advok	-6903
▁mykje	-6904
▁kjørte	-6905
▁koblet	-6906
Du	-6907
virk	-6908
▁Ari	-6909
▁Jess	-6910
▁latt	-6911
likter	-6912
▁spillets	-6913
▁sor	-6914
vendt	-6915
▁Kate	-6916
▁Ofte	-6917
▁genu	-6918
▁Light	-6919
▁besky	-6920
ståelig	-6921
▁HANDLER	-6922
▁svinger	-6923
▁oppgaver	-6924
▁balanserer	-6925
▁restauranten	-6926
ics	-6927
ittil	-6928
evennen	-6929
formatet	-6930
▁fortiden	-6931
▁Ir	-6932
lapp	-6933
mede	-6934
▁Bet	-6935
▁LED	-6936
▁Nes	-6937
▁dry	-6938
kasse	-6939
medlem	-6940
▁Romanen	-6941
▁plasserer	-6942
oph	-6943
ktiv	-6944
▁Alf	-6945
▁Ass	-6946
▁sed	-6947
▁Down	-6948
▁Lyden	-6949
▁estet	-6950
▁vellykkede	-6951
ful	-6952
leder	-6953
▁rygg	-6954
enning	-6955
▁Polit	-6956
▁resul	-6957
▁sikre	-6958
▁tynne	-6959
▁visse	-6960
▁hurtig	-6961
▁mennesket	-6962
▁etterforsk	-6963
▁konsekvenser	-6964
amper	-6965
knapp	-6966
▁kong	-6967
støtte	-6968
vember	-6969
▁delik	-6970
▁offer	-6971
▁tøffe	-6972
▁ujevn	-6973
▁rammer	-6974
gutt	-6975
▁ani	-6976
▁dun	-6977
opher	-6978
▁fanger	-6979
▁gratis	-6980
▁konstater	-6981
▁manglende	-6982
99	-6983
oty	-6984
xus	-6985
ratt	-6986
skal	-6987
▁tide	-6988
former	-6989
alisert	-6990
▁tilkobling	-6991
vig	-6992
▁ed	-6993
lake	-6994
▁eier	-6995
iction	-6996
▁belast	-6997
▁trengs	-6998
▁vokalen	-6999
▁konseptet	-7000
▁marer	-7001
▁stått	-7002
▁Årets	-7003
▁tyngre	-7004
▁popmusikk	-7005
▁virkemidler	-7006
▁Lil	-7007
▁Port	-7008
modell	-7009
▁griper	-7010
▁synlig	-7011
▁imellom	-7012
▁lengden	-7013
▁åpenbar	-7014
▁dramatur	-7015
▁forklare	-7016
▁fargerike	-7017
arth	-7018
ourn	-7019
▁Jay	-7020
tekst	-7021
renger	-7022
▁jevne	-7023
ays	-7024
bilen	-7025
prisen	-7026
▁Brown	-7027
▁viten	-7028
▁fjerne	-7029
▁sjekke	-7030
▁omsider	-7031
▁ungdoms	-7032
▁refrenget	-7033
▁tilnærming	-7034
øde	-7035
nett	-7036
smin	-7037
åter	-7038
maskin	-7039
▁lykke	-7040
▁forsøke	-7041
▁individ	-7042
▁kritikk	-7043
▁forelsket	-7044
▁sannheten	-7045
▁medfølgende	-7046
▁utelukkende	-7047
2)	-7048
TER	-7049
iff	-7050
▁23	-7051
sels	-7052
▁forelsk	-7053
▁normalt	-7054
▁batterit	-7055
▁systemet	-7056
▁eksempler	-7057
▁svakheter	-7058
mand	-7059
ssur	-7060
vari	-7061
▁Kir	-7062
▁idyl	-7063
menyen	-7064
askiner	-7065
▁konfron	-7066
▁kunsten	-7067
▁positiv	-7068
▁tidenes	-7069
odi	-7070
ynn	-7071
uter	-7072
▁nes	-7073
▁falle	-7074
▁byttet	-7075
▁visste	-7076
▁skildre	-7077
dighetene	-7078
▁innebærer	-7079
▁overskudd	-7080
▁elementene	-7081
▁eksperiment	-7082
▁overveldende	-7083
▁rollefigurene	-7084
spl	-7085
inav	-7086
iren	-7087
▁Cor	-7088
▁klø	-7089
▁drag	-7090
følget	-7091
▁Ungdom	-7092
▁effektive	-7093
▁kombinert	-7094
▁løsningen	-7095
▁foregående	-7096
▁overrasket	-7097
uge	-7098
▁90	-7099
adem	-7100
bake	-7101
▁hell	-7102
iteter	-7103
rettet	-7104
▁apper	-7105
▁bevege	-7106
▁eksent	-7107
▁dyktige	-7108
▁samtlige	-7109
▁storslag	-7110
▁fremtiden	-7111
▁California	-7112
bor	-7113
sal	-7114
ærne	-7115
▁Ken	-7116
gress	-7117
▁smør	-7118
verker	-7119
ønster	-7120
▁House	-7121
skriften	-7122
▁seriens	-7123
▁overleve	-7124
▁vanligvis	-7125
▁Ca	-7126
rack	-7127
▁lab	-7128
▁uan	-7129
▁vem	-7130
▁levd	-7131
▁turen	-7132
ksjonen	-7133
▁ær	-7134
jakt	-7135
▁gis	-7136
▁Prem	-7137
▁saker	-7138
▁normal	-7139
▁Faktisk	-7140
▁uforutsig	-7141
▁spillefilm	-7142
War	-7143
seg	-7144
odus	-7145
okol	-7146
▁Hau	-7147
▁Hov	-7148
▁Aust	-7149
▁naiv	-7150
▁that	-7151
▁duoen	-7152
▁Street	-7153
▁berømte	-7154
▁oversett	-7155
▁ypperlig	-7156
▁Amerikansk	-7157
gren	-7158
▁Wii	-7159
▁lete	-7160
▁øker	-7161
▁brått	-7162
▁søndag	-7163
▁ansiktet	-7164
▁handlinger	-7165
hew	-7166
▁glø	-7167
jente	-7168
▁inni	-7169
itusjon	-7170
▁kjedelige	-7171
bær	-7172
key	-7173
▁How	-7174
humor	-7175
▁Iron	-7176
▁retro	-7177
▁truer	-7178
▁Panason	-7179
▁blikket	-7180
▁energisk	-7181
▁elektronisk	-7182
hyl	-7183
▁Sha	-7184
▁Vir	-7185
athan	-7186
ttene	-7187
▁Metal	-7188
▁press	-7189
▁torsdag	-7190
▁religion	-7191
▁selveste	-7192
▁sekvenser	-7193
▁hovedpersonene	-7194
US	-7195
edy	-7196
syl	-7197
▁400	-7198
▁ens	-7199
▁tju	-7200
viser	-7201
▁vokst	-7202
▁elsket	-7203
▁forlag	-7204
▁former	-7205
▁utsatt	-7206
stemning	-7207
materiale	-7208
▁forsvant	-7209
▁psykedel	-7210
spillingen	-7211
▁terningen	-7212
▁opplevelser	-7213
400	-7214
ueen	-7215
▁dop	-7216
▁Arne	-7217
▁tørr	-7218
▁desto	-7219
▁sjang	-7220
▁åpent	-7221
▁kontor	-7222
▁saftig	-7223
▁følelsene	-7224
ines	-7225
▁lat	-7226
varen	-7227
▁folket	-7228
▁romaner	-7229
▁forholde	-7230
▁åpningen	-7231
AS	-7232
Her	-7233
day	-7234
drein	-7235
press	-7236
▁Franc	-7237
komedie	-7238
▁betale	-7239
▁blandet	-7240
▁komplek	-7241
▁signert	-7242
▁fortsette	-7243
12	-7244
So	-7245
▁Haw	-7246
attet	-7247
ønner	-7248
▁feir	-7249
mester	-7250
▁Tommy	-7251
▁vindu	-7252
imenter	-7253
▁temaer	-7254
▁komplisert	-7255
▁gjennombrudd	-7256
sti	-7257
▁nød	-7258
debut	-7259
unner	-7260
kuttet	-7261
▁samvitt	-7262
▁særpreg	-7263
▁utsette	-7264
▁følgende	-7265
TEIN	-7266
fans	-7267
sinn	-7268
▁Clo	-7269
▁feb	-7270
▁Mang	-7271
▁usann	-7272
▁Steven	-7273
▁savnet	-7274
▁sluppet	-7275
▁samtaler	-7276
▁troverdige	-7277
▁tilstedevær	-7278
On	-7279
egj	-7280
jor	-7281
rand	-7282
reme	-7283
▁Are	-7284
▁Anim	-7285
▁indi	-7286
▁stolt	-7287
▁spiser	-7288
▁påfallende	-7289
holm	-7290
stri	-7291
▁Mik	-7292
beide	-7293
bered	-7294
▁hits	-7295
▁rare	-7296
▁tann	-7297
ualitet	-7298
▁tanken	-7299
▁temaet	-7300
▁comeback	-7301
▁Ram	-7302
▁rek	-7303
essor	-7304
glede	-7305
▁stol	-7306
holdet	-7307
▁ensom	-7308
▁glade	-7309
▁absurde	-7310
▁artisten	-7311
▁filmskaperne	-7312
PC	-7313
TC	-7314
how	-7315
▁Kil	-7316
▁Lam	-7317
▁lur	-7318
frika	-7319
▁trer	-7320
▁Espen	-7321
▁uinter	-7322
▁forsøkt	-7323
▁skjuler	-7324
oppløsning	-7325
▁kvinnelig	-7326
▁Ru	-7327
▁Lau	-7328
issen	-7329
▁hittil	-7330
▁tilstand	-7331
▁etterhvert	-7332
▁brukervennlig	-7333
▁fu	-7334
amet	-7335
rete	-7336
▁merket	-7337
▁mørkere	-7338
▁glitrende	-7339
▁tilværelsen	-7340
val	-7341
vint	-7342
▁GHz	-7343
▁nak	-7344
cover	-7345
▁overd	-7346
▁tvers	-7347
▁nevnes	-7348
▁jentene	-7349
▁Springste	-7350
▁diskusjon	-7351
▁Ep	-7352
adisk	-7353
river	-7354
▁Park	-7355
▁stab	-7356
▁stål	-7357
▁tort	-7358
igende	-7359
▁repet	-7360
▁avdøde	-7361
▁flinke	-7362
▁Johnson	-7363
▁digitale	-7364
▁atmosfære	-7365
▁45	-7366
▁hk	-7367
dahl	-7368
▁Dem	-7369
bøker	-7370
fritt	-7371
sterk	-7372
varer	-7373
▁tran	-7374
▁prisk	-7375
▁dyrere	-7376
rek	-7377
ally	-7378
▁mim	-7379
▁Øst	-7380
resten	-7381
▁lande	-7382
ikasjon	-7383
▁jakten	-7384
▁overflø	-7385
▁vennene	-7386
▁vanvittig	-7387
ury	-7388
vest	-7389
▁hov	-7390
video	-7391
▁brev	-7392
stykke	-7393
eventyr	-7394
▁overdri	-7395
▁samtale	-7396
▁sporene	-7397
onn	-7398
yes	-7399
back	-7400
kete	-7401
▁Rus	-7402
avene	-7403
igent	-7404
pakke	-7405
▁tull	-7406
▁fleks	-7407
▁nådel	-7408
▁prøvd	-7409
▁toner	-7410
▁unike	-7411
problem	-7412
▁homofil	-7413
▁oppover	-7414
▁november	-7415
▁Spisevennen	-7416
delt	-7417
▁pat	-7418
▁snub	-7419
▁Anton	-7420
▁Konsert	-7421
▁Philips	-7422
▁intellekt	-7423
▁melankolsk	-7424
3)	-7425
ado	-7426
fru	-7427
ktor	-7428
▁Stra	-7429
▁doll	-7430
▁svul	-7431
passet	-7432
▁Moore	-7433
▁vende	-7434
▁sporet	-7435
bransjen	-7436
▁oppgave	-7437
▁japanske	-7438
▁bevegelse	-7439
AT	-7440
ee	-7441
mør	-7442
kron	-7443
▁Sur	-7444
▁nøk	-7445
ennis	-7446
linje	-7447
▁ikon	-7448
▁støv	-7449
▁bryll	-7450
▁kirke	-7451
▁formen	-7452
▁kompromis	-7453
▁teknologi	-7454
▁hemmelighet	-7455
arn	-7456
seh	-7457
uch	-7458
ynet	-7459
▁rot	-7460
ening	-7461
▁hint	-7462
allige	-7463
▁grill	-7464
▁omdrein	-7465
▁slående	-7466
▁dynamikk	-7467
▁hastighet	-7468
▁Få	-7469
▁flat	-7470
▁møtet	-7471
▁virket	-7472
▁tempoet	-7473
▁aldrende	-7474
▁Anmeldelsen	-7475
▁mm	-7476
yrer	-7477
▁Sat	-7478
▁snev	-7479
▁iblant	-7480
▁akustisk	-7481
▁oversatt	-7482
egenskaper	-7483
▁personene	-7484
▁inntrykket	-7485
▁åra	-7486
låten	-7487
▁uhel	-7488
▁øyet	-7489
▁balanse	-7490
▁konserter	-7491
▁varianter	-7492
kle	-7493
▁193	-7494
▁Jap	-7495
▁hes	-7496
grens	-7497
adiske	-7498
▁ekskl	-7499
▁Resten	-7500
▁gitarer	-7501
▁Jennifer	-7502
▁tolkning	-7503
▁forutsigbar	-7504
▁Ur	-7505
▁Till	-7506
▁foto	-7507
▁greie	-7508
plasser	-7509
▁hånden	-7510
▁ressur	-7511
▁Andreas	-7512
▁Stephen	-7513
▁bekjent	-7514
▁seinere	-7515
▁selvmord	-7516
▁utfordring	-7517
idig	-7518
soft	-7519
▁bla	-7520
adene	-7521
▁kart	-7522
▁unik	-7523
▁glans	-7524
▁bilene	-7525
▁stykket	-7526
▁særegen	-7527
▁sentralt	-7528
tta	-7529
▁kru	-7530
inder	-7531
stille	-7532
▁håpet	-7533
▁Fredrik	-7534
sko	-7535
alin	-7536
essant	-7537
innene	-7538
▁gnist	-7539
▁rulle	-7540
▁sjanse	-7541
▁Facebook	-7542
▁presentert	-7543
5)	-7544
bri	-7545
▁Op	-7546
onere	-7547
▁Kvel	-7548
▁nabo	-7549
tommers	-7550
▁periode	-7551
▁storhet	-7552
▁presenterer	-7553
▁snill	-7554
▁studi	-7555
▁autent	-7556
▁dikter	-7557
▁anbefale	-7558
▁helheten	-7559
▁trådløse	-7560
▁forventningene	-7561
1-	-7562
▁Ob	-7563
▁mai	-7564
▁bygg	-7565
▁frig	-7566
▁vers	-7567
▁øret	-7568
▁2011.	-7569
▁brutal	-7570
▁Enkelte	-7571
▁stadion	-7572
▁elegante	-7573
▁italienske	-7574
▁utviklingen	-7575
ari	-7576
mmer	-7577
jerer	-7578
▁Rett	-7579
▁Sant	-7580
▁iPod	-7581
▁skudd	-7582
regissør	-7583
strasjon	-7584
▁særegne	-7585
▁forklarer	-7586
▁oppskrift	-7587
▁Jer	-7588
▁fravær	-7589
▁målgru	-7590
auranter	-7591
▁antyder	-7592
▁ironisk	-7593
▁lansert	-7594
▁spesifik	-7595
▁forståelse	-7596
▁produsenter	-7597
▁Ap	-7598
fast	-7599
▁Fem	-7600
▁utv	-7601
attle	-7602
lotte	-7603
oppen	-7604
▁Test	-7605
▁Stock	-7606
▁begynt	-7607
▁fortel	-7608
▁hjerne	-7609
▁brenner	-7610
▁lekkert	-7611
▁ekstreme	-7612
▁represent	-7613
▁selskapet	-7614
▁26	-7615
▁Mr	-7616
Play	-7617
cent	-7618
▁can	-7619
▁flag	-7620
▁hull	-7621
▁Snart	-7622
▁Terje	-7623
▁målet	-7624
scenene	-7625
▁kanten	-7626
holdning	-7627
▁hverdags	-7628
▁konkurrenter	-7629
arl	-7630
itz	-7631
▁Fox	-7632
▁Mør	-7633
igner	-7634
▁grønne	-7635
▁intrig	-7636
▁svaret	-7637
▁benytter	-7638
▁italiensk	-7639
▁minuttene	-7640
▁tilhenger	-7641
▁dokumenter	-7642
▁påfølgende	-7643
asc	-7644
arar	-7645
▁000	-7646
bjørn	-7647
▁Lund	-7648
▁puss	-7649
isplay	-7650
strene	-7651
▁evnen	-7652
▁fersk	-7653
▁forest	-7654
▁priskl	-7655
▁glemmer	-7656
▁spesial	-7657
▁mareritt	-7658
bass	-7659
▁lam	-7660
itets	-7661
minne	-7662
kanten	-7663
▁Oversatt	-7664
▁lytteren	-7665
haver	-7666
kledd	-7667
thriller	-7668
▁knappene	-7669
▁operativ	-7670
ya	-7671
▁don	-7672
▁pil	-7673
risen	-7674
▁Mary	-7675
▁Woody	-7676
▁sinne	-7677
messige	-7678
etningen	-7679
▁manuell	-7680
▁verktøy	-7681
▁HTC	-7682
▁maf	-7683
atert	-7684
▁lurt	-7685
▁såre	-7686
▁tilp	-7687
▁fakta	-7688
▁ledet	-7689
▁presis	-7690
▁million	-7691
▁Musikalsk	-7692
▁hemmeligheter	-7693
dis	-7694
oven	-7695
pene	-7696
pete	-7697
▁Gri	-7698
▁Hvil	-7699
▁Jeff	-7700
▁alli	-7701
▁drøye	-7702
▁leter	-7703
▁rytme	-7704
ensielt	-7705
▁Spørsm	-7706
▁forlatt	-7707
▁plottet	-7708
▁rettene	-7709
▁forlater	-7710
▁intensitet	-7711
▁rollespill	-7712
gs	-7713
oar	-7714
▁uh	-7715
oker	-7716
▁Ele	-7717
lager	-7718
▁magi	-7719
▁Deres	-7720
▁kines	-7721
▁kjøpt	-7722
▁timen	-7723
▁Toyota	-7724
▁hviler	-7725
▁nekter	-7726
▁rattet	-7727
▁godkjent	-7728
▁undertegnede	-7729
vern	-7730
▁Aur	-7731
▁Log	-7732
andid	-7733
▁Nesten	-7734
▁forbindelse	-7735
ala	-7736
ute	-7737
vann	-7738
▁Jean	-7739
▁blin	-7740
▁lege	-7741
▁drøyt	-7742
retensi	-7743
smannen	-7744
▁fiksjon	-7745
▁tilbakeblikk	-7746
▁0	-7747
tekt	-7748
▁Ren	-7749
sofon	-7750
▁høsten	-7751
▁nyskapende	-7752
▁tilstrekkelig	-7753
pn	-7754
▁Ga	-7755
▁Kap	-7756
▁endret	-7757
▁holdes	-7758
▁natten	-7759
4)	-7760
kro	-7761
emma	-7762
▁VGA	-7763
▁het	-7764
board	-7765
jålet	-7766
▁Ball	-7767
▁Brun	-7768
▁Russ	-7769
konkur	-7770
▁Bilen	-7771
▁manip	-7772
kkelige	-7773
▁gjeste	-7774
▁pleier	-7775
▁forvirrende	-7776
▁Sø	-7777
▁km	-7778
kins	-7779
▁ekk	-7780
ender	-7781
▁rust	-7782
▁drivende	-7783
ås	-7784
sey	-7785
Side	-7786
etta	-7787
ripe	-7788
▁Nær	-7789
indre	-7790
▁Back	-7791
▁Bort	-7792
▁Mini	-7793
▁gåte	-7794
▁angår	-7795
▁artikk	-7796
▁drevet	-7797
▁runder	-7798
▁komiske	-7799
▁dialogen	-7800
▁innebygd	-7801
▁bevegelser	-7802
nom	-7803
▁34	-7804
jenn	-7805
spar	-7806
▁But	-7807
sider	-7808
▁juli	-7809
▁kass	-7810
▁nyte	-7811
linjer	-7812
▁mekan	-7813
▁bærbar	-7814
▁korrekt	-7815
▁riktige	-7816
▁svakhet	-7817
▁melodiene	-7818
▁legendariske	-7819
rut	-7820
zer	-7821
ddie	-7822
less	-7823
ubben	-7824
verks	-7825
▁Kenn	-7826
▁plott	-7827
▁kompet	-7828
▁etterforsker	-7829
▁hodetelefoner	-7830
▁tilstedeværelse	-7831
▁sov	-7832
Norge	-7833
▁Mars	-7834
▁bånd	-7835
▁Sound	-7836
▁upåkl	-7837
▁stabil	-7838
▁treffe	-7839
▁simpelt	-7840
bb	-7841
oss	-7842
▁gyl	-7843
▁tam	-7844
▁Blue	-7845
høytid	-7846
▁bryte	-7847
▁nabol	-7848
▁skille	-7849
▁sykdom	-7850
familien	-7851
▁galskap	-7852
▁konklusjon	-7853
▁størrelsen	-7854
▁eksperimenter	-7855
awe	-7856
wart	-7857
▁III	-7858
▁Vig	-7859
▁turn	-7860
▁formel	-7861
▁Maskinen	-7862
veld	-7863
vold	-7864
ykke	-7865
▁fød	-7866
▁Nation	-7867
▁filmat	-7868
▁mektige	-7869
▁stjerner	-7870
▁stasjonsv	-7871
▁produsenten	-7872
▁opprinnelige	-7873
ji	-7874
uta	-7875
▁dama	-7876
allerken	-7877
▁stykker	-7878
▁positive	-7879
▁ødelegge	-7880
kontrollen	-7881
▁passasjer	-7882
ogg	-7883
This	-7884
▁fal	-7885
septet	-7886
ustrof	-7887
▁skade	-7888
▁Heller	-7889
års	-7890
▁kø	-7891
unne	-7892
▁360	-7893
▁Gold	-7894
▁entusi	-7895
publikum	-7896
▁grøsser	-7897
▁klimaks	-7898
▁papiret	-7899
▁unnskyl	-7900
▁melankoli	-7901
▁offentlig	-7902
▁psykologisk	-7903
7-	-7904
asen	-7905
▁Små	-7906
ition	-7907
verdi	-7908
▁Spen	-7909
▁avde	-7910
▁kose	-7911
▁fiske	-7912
▁sjokk	-7913
▁innpak	-7914
▁studer	-7915
▁Beatles	-7916
▁fronten	-7917
▁naturlige	-7918
▁utgivelsen	-7919
▁leg	-7920
▁glam	-7921
▁kant	-7922
stiden	-7923
▁2012.	-7924
▁berre	-7925
bildene	-7926
▁Magnus	-7927
▁broren	-7928
▁havnet	-7929
▁maksim	-7930
▁kjennes	-7931
▁halvparten	-7932
▁vul	-7933
angel	-7934
edier	-7935
▁Gran	-7936
ustrofob	-7937
▁herlige	-7938
▁bestående	-7939
19	-7940
oc	-7941
ids	-7942
ppel	-7943
▁seng	-7944
▁Brian	-7945
▁potet	-7946
konstru	-7947
velsene	-7948
▁selger	-7949
kameraet	-7950
▁bergens	-7951
▁blander	-7952
▁skifter	-7953
▁stjeler	-7954
▁aktuelle	-7955
▁halvannen	-7956
»?	-7957
sin	-7958
anny	-7959
▁son	-7960
blemer	-7961
deling	-7962
▁veter	-7963
▁Harald	-7964
▁trilog	-7965
▁utforsk	-7966
▁ektemann	-7967
▁oppmerksomheten	-7968
ferd	-7969
frem	-7970
kede	-7971
▁Pix	-7972
▁SUV	-7973
isset	-7974
light	-7975
▁Roll	-7976
▁fløy	-7977
▁rått	-7978
▁cirka	-7979
▁Hitler	-7980
▁bruken	-7981
▁hevder	-7982
▁mennene	-7983
What	-7984
imer	-7985
aling	-7986
havet	-7987
ønete	-7988
behand	-7989
▁redig	-7990
▁seter	-7991
alismen	-7992
▁tingene	-7993
▁innrømme	-7994
▁hverdagen	-7995
▁internett	-7996
▁medrivende	-7997
afé	-7998
core	-7999
show	-8000
gener	-8001
▁kalk	-8002
▁Adams	-8003
▁bolig	-8004
▁pizza	-8005
▁Italia	-8006
vennlige	-8007
▁bakover	-8008
▁forfattere	-8009
▁Bel	-8010
▁out	-8011
▁Miss	-8012
▁Sarah	-8013
▁Water	-8014
▁dumme	-8015
▁Ericsson	-8016
▁tegneserie	-8017
▁avslutningen	-8018
▁forfatterens	-8019
▁Hj	-8020
iley	-8021
kler	-8022
▁CIA	-8023
▁lyr	-8024
melse	-8025
▁2014	-8026
▁sårt	-8027
▁tapt	-8028
▁tjue	-8029
▁urett	-8030
▁Mellom	-8031
ferdighet	-8032
▁elektrisk	-8033
▁skjønnhet	-8034
mans	-8035
rikt	-8036
usias	-8037
▁rosa	-8038
▁Billy	-8039
▁analy	-8040
▁impro	-8041
▁ivaret	-8042
▁drømmen	-8043
olkningen	-8044
▁utfordrer	-8045
orno	-8046
▁Arn	-8047
riker	-8048
▁skrå	-8049
broren	-8050
▁Bilde	-8051
▁datam	-8052
▁ultra	-8053
▁høydepunkter	-8054
▁vanskeligere	-8055
ege	-8056
ros	-8057
▁yr	-8058
oler	-8059
dagen	-8060
▁Gode	-8061
▁Scen	-8062
okolade	-8063
▁visjon	-8064
▁sluttet	-8065
▁trivelig	-8066
▁Microsoft	-8067
▁fraværende	-8068
ragon	-8069
hetens	-8070
ieskap	-8071
▁seier	-8072
ilighet	-8073
▁følsom	-8074
▁parodi	-8075
▁sports	-8076
▁fineste	-8077
▁rikelig	-8078
elefonene	-8079
▁Panasonic	-8080
▁hemmelige	-8081
▁installer	-8082
▁økonomisk	-8083
fan	-8084
isin	-8085
▁økt	-8086
▁Trom	-8087
▁bank	-8088
▁trøb	-8089
iseres	-8090
urdere	-8091
▁Julie	-8092
▁Trump	-8093
figurer	-8094
fronten	-8095
▁Action	-8096
▁rommer	-8097
▁motiver	-8098
▁western	-8099
rangementer	-8100
▁erfaringer	-8101
HL	-8102
eler	-8103
umin	-8104
▁Cam	-8105
eløse	-8106
rince	-8107
▁Jane	-8108
▁Mont	-8109
▁Nash	-8110
▁amat	-8111
anning	-8112
effekt	-8113
▁konge	-8114
▁kjennet	-8115
▁kompleks	-8116
▁visstnok	-8117
▁tradisjonelt	-8118
arr	-8119
bed	-8120
▁Ko	-8121
ovie	-8122
▁yng	-8123
▁Øya	-8124
iktet	-8125
▁olje	-8126
▁pene	-8127
▁vink	-8128
▁dukke	-8129
▁Sundfør	-8130
▁stoffet	-8131
▁sammenlik	-8132
cia	-8133
iter	-8134
selv	-8135
▁bis	-8136
achel	-8137
▁Bjør	-8138
▁Inge	-8139
▁Egnet	-8140
▁storm	-8141
▁ulikt	-8142
▁gangster	-8143
▁passende	-8144
▁utallige	-8145
materialet	-8146
▁fristende	-8147
gjer	-8148
rence	-8149
istent	-8150
▁grote	-8151
▁århun	-8152
▁ørken	-8153
▁endrer	-8154
▁skjult	-8155
modeller	-8156
orkester	-8157
▁aktiver	-8158
▁hensikt	-8159
▁miljøet	-8160
▁relevant	-8161
▁debuterte	-8162
▁innlevelse	-8163
▁betraktelig	-8164
▁elektroniske	-8165
IF	-8166
▁Sæ	-8167
hast	-8168
åndet	-8169
▁Hoff	-8170
▁sånt	-8171
sterke	-8172
▁skets	-8173
▁blodig	-8174
▁innvand	-8175
▁intelligent	-8176
▁Af	-8177
rekk	-8178
▁Cas	-8179
▁ali	-8180
rådet	-8181
ativer	-8182
▁hørte	-8183
▁bakteppe	-8184
▁plassere	-8185
▁realisme	-8186
▁perfeksjon	-8187
▁29	-8188
▁då	-8189
aron	-8190
last	-8191
nder	-8192
rolle	-8193
ulere	-8194
▁følges	-8195
▁platene	-8196
▁voldsom	-8197
▁animasjon	-8198
▁ødelegger	-8199
▁samarbeidet	-8200
Par	-8201
▁VM	-8202
anet	-8203
stol	-8204
▁Bat	-8205
action	-8206
▁korru	-8207
▁poesi	-8208
▁inspir	-8209
▁parker	-8210
▁selvbi	-8211
▁snille	-8212
▁utstrå	-8213
▁kvarter	-8214
▁trommes	-8215
▁engasjement	-8216
iat	-8217
øve	-8218
ands	-8219
▁pol	-8220
ality	-8221
journ	-8222
▁Spot	-8223
▁spek	-8224
▁Drama	-8225
▁Spekt	-8226
▁ideen	-8227
▁Låtene	-8228
▁prøvde	-8229
▁kunstig	-8230
▁ondskap	-8231
▁syvende	-8232
▁anbefaler	-8233
▁hovedstad	-8234
▁kontinuer	-8235
▁landskapet	-8236
bøl	-8237
▁ab	-8238
jazz	-8239
▁Fol	-8240
▁Pat	-8241
▁sta	-8242
▁møtt	-8243
▁betra	-8244
▁blank	-8245
▁Miller	-8246
▁Charlie	-8247
▁fingeren	-8248
▁russiske	-8249
▁forskjellig	-8250
▁batterilevet	-8251
▁VW	-8252
etil	-8253
▁Jak	-8254
kolle	-8255
scene	-8256
▁Bern	-8257
▁TEST	-8258
illene	-8259
▁moral	-8260
▁påminn	-8261
▁solgte	-8262
▁signatur	-8263
▁struktur	-8264
▁70	-8265
▁hud	-8266
▁Lite	-8267
▁hang	-8268
▁nerv	-8269
▁Kjell	-8270
ferdige	-8271
▁nivået	-8272
▁tegner	-8273
▁elektro	-8274
ago	-8275
grø	-8276
aper	-8277
▁Kol	-8278
▁Hann	-8279
▁Vekt	-8280
▁katt	-8281
▁lært	-8282
▁Dream	-8283
▁vesle	-8284
standen	-8285
▁arkite	-8286
▁justere	-8287
▁respons	-8288
▁utvikle	-8289
iseringen	-8290
trengende	-8291
▁kriminal	-8292
kontroller	-8293
▁vitenskap	-8294
▁Christopher	-8295
rey	-8296
fart	-8297
▁Rick	-8298
▁Samt	-8299
▁enig	-8300
uttrykk	-8301
▁pakket	-8302
▁Matthew	-8303
▁lavmælt	-8304
▁mesterlig	-8305
▁soloalbum	-8306
66	-8307
fokus	-8308
klare	-8309
ksess	-8310
▁USAs	-8311
▁prom	-8312
bordet	-8313
navnet	-8314
▁dritt	-8315
▁julen	-8316
▁kanter	-8317
▁villig	-8318
▁behøver	-8319
▁terreng	-8320
skjærende	-8321
▁dynamisk	-8322
▁gjenskap	-8323
▁forresten	-8324
Let	-8325
sfyl	-8326
▁800	-8327
▁Mod	-8328
▁uut	-8329
spart	-8330
▁Beck	-8331
nummer	-8332
▁Beach	-8333
ggelige	-8334
▁fiolin	-8335
▁minnet	-8336
▁sorten	-8337
▁eksklus	-8338
▁innfall	-8339
▁oppfatt	-8340
▁konkurranse	-8341
IM	-8342
ify	-8343
▁4,	-8344
▁es	-8345
rong	-8346
sfri	-8347
▁Cry	-8348
▁Dev	-8349
▁sjal	-8350
▁betraktning	-8351
Star	-8352
stor	-8353
▁drø	-8354
natur	-8355
ineres	-8356
▁aksep	-8357
hjertet	-8358
lingene	-8359
▁Little	-8360
▁tilbeh	-8361
stjerner	-8362
▁selvtil	-8363
▁tydeligere	-8364
1)	-8365
Har	-8366
anc	-8367
▁5,	-8368
holi	-8369
hvitt	-8370
▁Cent	-8371
stabil	-8372
▁Blues	-8373
▁Gabri	-8374
▁Olsen	-8375
▁islam	-8376
▁radik	-8377
▁handlet	-8378
▁sannhet	-8379
▁midtveis	-8380
▁poetiske	-8381
▁kommenter	-8382
▁musikerne	-8383
▁presisjon	-8384
rift	-8385
▁Oli	-8386
ansje	-8387
▁Vict	-8388
▁felle	-8389
▁Mannen	-8390
▁stoppe	-8391
▁triste	-8392
▁overgang	-8393
▁berørings	-8394
omi	-8395
rus	-8396
bånd	-8397
egul	-8398
gers	-8399
▁Sex	-8400
isene	-8401
▁Merk	-8402
▁Tour	-8403
ground	-8404
▁banen	-8405
":	-8406
800	-8407
oga	-8408
▁SD	-8409
ista	-8410
jern	-8411
prem	-8412
støy	-8413
▁150	-8414
▁Fot	-8415
selen	-8416
▁Finn	-8417
harmon	-8418
▁samler	-8419
▁flerspiller	-8420
ønt	-8421
xico	-8422
▁Eva	-8423
▁ras	-8424
▁muse	-8425
▁måle	-8426
▁Games	-8427
▁heder	-8428
▁uimot	-8429
britann	-8430
▁Cooper	-8431
▁blåser	-8432
▁finans	-8433
▁subtil	-8434
aldrende	-8435
▁trekkes	-8436
▁Egnethet	-8437
▁ensomhet	-8438
▁fremført	-8439
▁meningen	-8440
▁tilgjengelige	-8441
xt	-8442
boka	-8443
sign	-8444
▁Dom	-8445
▁Ola	-8446
rollen	-8447
▁Huawe	-8448
▁bonus	-8449
▁pakke	-8450
▁surre	-8451
▁tilkob	-8452
▁skyggen	-8453
▁Spektrum	-8454
▁avspilling	-8455
aket	-8456
ison	-8457
itiv	-8458
vise	-8459
▁Bor	-8460
▁Sje	-8461
▁jan	-8462
forel	-8463
okaly	-8464
skriv	-8465
ssene	-8466
▁Road	-8467
▁oser	-8468
▁utan	-8469
▁helse	-8470
▁tomme	-8471
▁fremstå	-8472
▁overgrep	-8473
▁ypperste	-8474
▁anmeldelse	-8475
▁opprinnelig	-8476
dikt	-8477
▁Rih	-8478
manns	-8479
▁sver	-8480
dukter	-8481
ttaler	-8482
▁Alice	-8483
▁Ghost	-8484
▁Stones	-8485
▁betjen	-8486
▁dobbel	-8487
▁Brother	-8488
▁alkohol	-8489
▁platens	-8490
▁porsjon	-8491
▁ambisjon	-8492
▁familiens	-8493
▁merkelige	-8494
▁viktigere	-8495
▁klaustrofob	-8496
ømme	-8497
▁Est	-8498
▁naken	-8499
kjøring	-8500
▁satire	-8501
▁hendelsene	-8502
▁øyeblikkene	-8503
▁skuespilleren	-8504
OK	-8505
urg	-8506
utte	-8507
▁Nytt	-8508
▁Oper	-8509
▁mild	-8510
▁sand	-8511
▁svik	-8512
▁doser	-8513
▁plukke	-8514
▁fabelaktig	-8515
▁bø	-8516
▁ud	-8517
▁Fir	-8518
merke	-8519
stere	-8520
kkelen	-8521
▁påstå	-8522
miljøet	-8523
▁Intern	-8524
▁trygge	-8525
▁visuell	-8526
produksjon	-8527
▁Alexander	-8528
▁upåklagelig	-8529
ktes	-8530
▁East	-8531
▁hypp	-8532
▁sexy	-8533
▁ulik	-8534
▁Georg	-8535
▁drive	-8536
▁enhet	-8537
▁delene	-8538
▁gulvet	-8539
▁luften	-8540
tradisjon	-8541
▁familier	-8542
▁saksofon	-8543
▁konflikter	-8544
wis	-8545
stads	-8546
▁Bowie	-8547
▁brudd	-8548
▁lyser	-8549
▁mamma	-8550
▁skutt	-8551
▁luksus	-8552
▁status	-8553
▁enheter	-8554
▁klønete	-8555
▁tragisk	-8556
▁gjennoms	-8557
▁gjestene	-8558
▁spektakulære	-8559
600	-8560
VID	-8561
▁Mi	-8562
▁hj	-8563
elys	-8564
ikon	-8565
▁Dum	-8566
▁aks	-8567
▁mur	-8568
stige	-8569
▁baby	-8570
▁svin	-8571
helter	-8572
vinkel	-8573
▁Knaus	-8574
▁krist	-8575
▁provo	-8576
▁ruter	-8577
astiske	-8578
▁lukter	-8579
▁skygge	-8580
▁våkner	-8581
▁musiker	-8582
▁reaksjon	-8583
▁vendinger	-8584
▁mesterverk	-8585
▁foretrekker	-8586
VG	-8587
ares	-8588
øyeb	-8589
▁Dei	-8590
▁bomb	-8591
▁Shake	-8592
▁duett	-8593
▁heilt	-8594
▁minus	-8595
▁unekt	-8596
leseren	-8597
▁farens	-8598
▁sjette	-8599
▁utføre	-8600
barheten	-8601
▁sjokker	-8602
▁beskrive	-8603
▁kapasitet	-8604
▁høyttalere	-8605
")	-8606
ødt	-8607
post	-8608
listen	-8609
▁Smart	-8610
▁smake	-8611
▁forson	-8612
▁spørre	-8613
▁svakere	-8614
▁tenårings	-8615
▁presenteres	-8616
OH	-8617
ilin	-8618
rans	-8619
rine	-8620
▁from	-8621
▁manns	-8622
▁dystre	-8623
▁kammer	-8624
▁skyter	-8625
▁fiction	-8626
▁hjulpet	-8627
▁likegyl	-8628
▁Spørsmålet	-8629
▁spisefølget	-8630
▁sammenligning	-8631
YS	-8632
ae	-8633
lund	-8634
▁etc	-8635
aking	-8636
▁2015	-8637
▁pust	-8638
▁rikt	-8639
resjon	-8640
▁black	-8641
▁priser	-8642
▁trioen	-8643
aliserer	-8644
▁tilfeller	-8645
abb	-8646
fisk	-8647
ital	-8648
▁nyn	-8649
beveg	-8650
modig	-8651
▁2011	-8652
plassen	-8653
▁dollar	-8654
▁handle	-8655
▁avsluttes	-8656
rykt	-8657
▁Fun	-8658
▁Sof	-8659
sning	-8660
▁zoom	-8661
slåtte	-8662
▁Canon	-8663
▁redusert	-8664
▁forståelig	-8665
▁kunstnerisk	-8666
fug	-8667
kne	-8668
▁def	-8669
ssons	-8670
▁Cash	-8671
▁Dave	-8672
▁Last	-8673
▁sølv	-8674
elsens	-8675
ftende	-8676
▁halve	-8677
▁ørene	-8678
▁skjule	-8679
industri	-8680
spillere	-8681
▁atskillig	-8682
▁integrert	-8683
øyd	-8684
vill	-8685
nerer	-8686
▁(198	-8687
▁Bull	-8688
▁Vide	-8689
▁brød	-8690
▁teat	-8691
▁skjønt	-8692
skrifter	-8693
▁oktober	-8694
yon	-8695
▁Eid	-8696
▁Ner	-8697
engde	-8698
osaur	-8699
▁nest	-8700
▁prog	-8701
▁same	-8702
▁vilt	-8703
▁hvitt	-8704
▁vittig	-8705
spilleren	-8706
▁ballader	-8707
▁improvis	-8708
▁tematikk	-8709
▁Kristoffer	-8710
▁dimensjoner	-8711
eds	-8712
the	-8713
▁2-	-8714
▁af	-8715
▁Bell	-8716
▁Laur	-8717
▁ofre	-8718
atning	-8719
ikkene	-8720
▁leses	-8721
▁Dersom	-8722
▁sofist	-8723
▁tester	-8724
▁kontinuerlig	-8725
dmy	-8726
ekv	-8727
▁Tu	-8728
ctor	-8729
eson	-8730
jobb	-8731
▁Seb	-8732
▁Vik	-8733
▁fett	-8734
▁klær	-8735
▁saman	-8736
▁sover	-8737
▁vesen	-8738
▁fester	-8739
▁vokste	-8740
▁gitaren	-8741
▁hjernen	-8742
▁moralske	-8743
▁simpelthen	-8744
▁høyttalerne	-8745
olds	-8746
▁Cap	-8747
▁Emma	-8748
▁Lady	-8749
▁kniv	-8750
romant	-8751
▁Death	-8752
▁skall	-8753
ensiell	-8754
lesende	-8755
▁femmer	-8756
▁mangelen	-8757
▁Hovedpersonen	-8758
▁innstillinger	-8759
mund	-8760
▁tag	-8761
ctive	-8762
utgang	-8763
▁Fortell	-8764
▁selvopp	-8765
▁brødrene	-8766
▁imponere	-8767
▁budskapet	-8768
stillingene	-8769
ING	-8770
▁CO	-8771
▁dil	-8772
hjert	-8773
ining	-8774
▁Acer	-8775
▁Alan	-8776
▁løpe	-8777
velses	-8778
▁hylle	-8779
▁modig	-8780
▁orgel	-8781
▁salat	-8782
▁kropps	-8783
ografisk	-8784
▁oppdage	-8785
▁liggende	-8786
▁eventuelt	-8787
Men	-8788
dra	-8789
inkt	-8790
▁Old	-8791
reise	-8792
▁Legg	-8793
▁afrik	-8794
▁appla	-8795
▁sympati	-8796
▁industri	-8797
▁reagerer	-8798
▁Springsteen	-8799
▁firehjulsdrift	-8800
por	-8801
ual	-8802
yre	-8803
ltim	-8804
▁Bie	-8805
▁JOH	-8806
▁rem	-8807
▁2013	-8808
▁Sent	-8809
▁frukt	-8810
▁innend	-8811
▁opplagt	-8812
▁tragedie	-8813
300	-8814
cle	-8815
akre	-8816
iets	-8817
▁kva	-8818
▁ledd	-8819
▁Livet	-8820
▁Mobil	-8821
▁Touch	-8822
▁medie	-8823
▁tvang	-8824
▁mulige	-8825
▁nøkkel	-8826
▁isteden	-8827
▁antagelig	-8828
▁dramatikk	-8829
▁modellene	-8830
▁emosjonelle	-8831
avy	-8832
fød	-8833
uen	-8834
ople	-8835
▁let	-8836
unnen	-8837
strukt	-8838
▁orden	-8839
▁Mennes	-8840
▁forbruk	-8841
▁science	-8842
▁service	-8843
funksjonen	-8844
▁konstruert	-8845
▁assosiasjoner	-8846
ibli	-8847
deler	-8848
▁roper	-8849
stykket	-8850
▁Morris	-8851
▁klokke	-8852
▁mengde	-8853
▁utsøkt	-8854
▁repeter	-8855
forestill	-8856
▁formuler	-8857
▁akustiske	-8858
▁ektemannen	-8859
▁historiens	-8860
▁portretter	-8861
,»	-8862
God	-8863
bad	-8864
kra	-8865
åte	-8866
play	-8867
anker	-8868
elter	-8869
▁Crow	-8870
▁Frid	-8871
▁Wash	-8872
▁matt	-8873
vurder	-8874
oppdrag	-8875
▁Jensen	-8876
▁straks	-8877
delingen	-8878
▁flytende	-8879
▁interiør	-8880
▁stemmene	-8881
▁involvert	-8882
▁oppriktig	-8883
▁unektelig	-8884
▁debutalbum	-8885
ux	-8886
ates	-8887
orsk	-8888
steg	-8889
▁ØYS	-8890
▁flyt	-8891
▁DAVID	-8892
▁bokens	-8893
▁dempet	-8894
▁januar	-8895
▁oftest	-8896
▁Tilbake	-8897
▁Twitter	-8898
▁drikker	-8899
▁kjøring	-8900
▁ØYSTEIN	-8901
▁platesel	-8902
▁velspilt	-8903
▁fornøyelig	-8904
▁Storbritann	-8905
Sn	-8906
løk	-8907
▁Tj	-8908
ills	-8909
lytt	-8910
▁Amy	-8911
andes	-8912
gaard	-8913
idder	-8914
▁This	-8915
▁graf	-8916
▁trus	-8917
▁ydmy	-8918
stende	-8919
▁uover	-8920
▁ødelagt	-8921
astaturet	-8922
▁JOHANSEN	-8923
▁begeistret	-8924
▁problemene	-8925
▁generasjoner	-8926
▁kunstneriske	-8927
▁mobiltelefon	-8928
▁karakteristiske	-8929
RE	-8930
▁8.	-8931
▁120	-8932
▁avr	-8933
ektiv	-8934
▁snik	-8935
arbeide	-8936
▁anonym	-8937
▁skaffe	-8938
▁sunget	-8939
▁søsken	-8940
▁Andersen	-8941
▁entusias	-8942
▁overhodet	-8943
▁underholde	-8944
▁restauranter	-8945
▁innledningsvis	-8946
asj	-8947
rød	-8948
ible	-8949
vekt	-8950
▁Hed	-8951
▁sci	-8952
▁tal	-8953
▁That	-8954
▁fikt	-8955
▁haug	-8956
finger	-8957
▁medier	-8958
▁overty	-8959
▁tenkte	-8960
▁eksplos	-8961
▁sjansen	-8962
▁skummel	-8963
▁oppfører	-8964
▁raskeste	-8965
skuespiller	-8966
▁utgivelser	-8967
▁omdreininger	-8968
▁rollefigurer	-8969
9)	-8970
win	-8971
▁Id	-8972
▁øm	-8973
bein	-8974
slut	-8975
▁Try	-8976
aktiv	-8977
▁Cold	-8978
▁Komp	-8979
▁Plus	-8980
▁high	-8981
formen	-8982
▁Marvel	-8983
▁gravid	-8984
▁rolige	-8985
▁arbeids	-8986
▁ballade	-8987
▁kortere	-8988
ografiske	-8989
mis	-8990
▁Ib	-8991
gain	-8992
ønne	-8993
▁Off	-8994
onsen	-8995
▁vore	-8996
zabeth	-8997
▁vitne	-8998
▁vonde	-8999
▁kynisk	-9000
▁melder	-9001
▁rytmer	-9002
espillet	-9003
▁figuren	-9004
produsent	-9005
sekvenser	-9006
▁alvorlige	-9007
▁kontraster	-9008
6)	-9009
oy	-9010
din	-9011
veg	-9012
ghan	-9013
latt	-9014
▁Not	-9015
størr	-9016
▁Hanne	-9017
▁heile	-9018
▁Jørgen	-9019
▁karism	-9020
▁lokket	-9021
▁rotete	-9022
▁skarpt	-9023
▁smaken	-9024
festival	-9025
▁Danmark	-9026
▁utløser	-9027
▁sannelig	-9028
appa	-9029
arch	-9030
▁Ban	-9031
▁Gun	-9032
▁Hør	-9033
▁Haug	-9034
▁klat	-9035
▁Cohen	-9036
▁ferie	-9037
▁feste	-9038
▁kjølig	-9039
fattelig	-9040
▁Spotify	-9041
▁install	-9042
▁etablert	-9043
iro	-9044
reff	-9045
▁Ida	-9046
▁spr	-9047
biler	-9048
▁Igjen	-9049
▁bunns	-9050
▁boksen	-9051
▁Amerika	-9052
▁presist	-9053
▁demonstr	-9054
▁håndfull	-9055
▁mannlige	-9056
▁uanstrengt	-9057
▁37	-9058
ania	-9059
ends	-9060
skip	-9061
▁Age	-9062
▁hat	-9063
ember	-9064
▁medi	-9065
▁søvn	-9066
▁Erlend	-9067
▁Prisen	-9068
▁tråder	-9069
▁fattige	-9070
▁hjørnet	-9071
▁landsby	-9072
▁øverste	-9073
elementer	-9074
▁halvveis	-9075
▁tittelsporet	-9076
▁høydepunktene	-9077
kjø	-9078
oms	-9079
▁5.	-9080
▁ego	-9081
thing	-9082
▁(197	-9083
▁Niss	-9084
▁ufri	-9085
porter	-9086
▁Japan	-9087
▁Marit	-9088
ementet	-9089
mennene	-9090
▁flaske	-9091
▁rekken	-9092
▁bestsel	-9093
▁punktet	-9094
▁rasende	-9095
▁eventyret	-9096
▁kriminelle	-9097
xas	-9098
▁33	-9099
▁Us	-9100
asin	-9101
legen	-9102
▁Mikk	-9103
▁Stev	-9104
▁anti	-9105
▁tryl	-9106
krigen	-9107
ranger	-9108
▁Radio	-9109
station	-9110
▁forleng	-9111
▁private	-9112
▁Bortsett	-9113
BI	-9114
prø	-9115
iron	-9116
vart	-9117
▁Lie	-9118
inges	-9119
▁Brid	-9120
▁Pink	-9121
▁funk	-9122
elgood	-9123
ertoar	-9124
▁febru	-9125
forfatt	-9126
▁serier	-9127
åpentlig	-9128
▁kritiker	-9129
▁motsatte	-9130
▁stereoty	-9131
▁sjokolade	-9132
▁tematikken	-9133
isj	-9134
illy	-9135
▁øde	-9136
▁Hero	-9137
▁sult	-9138
▁vent	-9139
▁2000-	-9140
▁Gunnar	-9141
▁deltak	-9142
▁fyldig	-9143
▁løftet	-9144
▁modern	-9145
stjernen	-9146
▁gjensyn	-9147
innehaver	-9148
▁samspill	-9149
▁religiøse	-9150
▁tilpasset	-9151
▁funksjonalitet	-9152
star	-9153
▁bol	-9154
▁Dram	-9155
▁Fest	-9156
▁bind	-9157
▁glob	-9158
▁hyper	-9159
▁skjel	-9160
▁gospel	-9161
▁storslått	-9162
▁inkluderer	-9163
▁forferdelig	-9164
▁melankolske	-9165
15	-9166
wen	-9167
▁3-	-9168
▁kg	-9169
alisere	-9170
▁aksept	-9171
▁settet	-9172
▁slemme	-9173
▁bassist	-9174
▁bredere	-9175
▁trådløs	-9176
▁hjerteskjærende	-9177
BO	-9178
ij	-9179
alf	-9180
▁AC	-9181
▁Ang	-9182
▁Beg	-9183
rover	-9184
øster	-9185
▁fund	-9186
▁1970-	-9187
▁Robyn	-9188
▁brede	-9189
▁hater	-9190
▁smaks	-9191
▁turné	-9192
▁trening	-9193
▁plattform	-9194
▁samvittighet	-9195
El	-9196
Me	-9197
One	-9198
blad	-9199
ffel	-9200
inal	-9201
▁22.	-9202
akene	-9203
boken	-9204
høyde	-9205
▁2009	-9206
entusi	-9207
▁inner	-9208
▁sådan	-9209
▁Donald	-9210
▁planer	-9211
▁røtter	-9212
▁satser	-9213
▁yngste	-9214
▁farlige	-9215
▁Tekstene	-9216
▁alkoholi	-9217
▁fingrene	-9218
▁halvtime	-9219
▁håndverk	-9220
▁kolleger	-9221
uba	-9222
Mark	-9223
tale	-9224
tema	-9225
unes	-9226
▁sug	-9227
▁Pent	-9228
▁Sett	-9229
funger	-9230
▁Hotel	-9231
▁Kunst	-9232
▁Strøm	-9233
▁antyd	-9234
▁kjekk	-9235
gjengen	-9236
▁overvå	-9237
▁svarer	-9238
▁militær	-9239
▁styrker	-9240
▁behersker	-9241
Et	-9242
La	-9243
øg	-9244
jam	-9245
▁Now	-9246
endet	-9247
tenkt	-9248
▁søtt	-9249
splass	-9250
stemte	-9251
▁Låten	-9252
▁Thron	-9253
▁irrit	-9254
▁Gylden	-9255
▁debatt	-9256
▁nærhet	-9257
▁linjene	-9258
▁Øystein	-9259
▁Tidligere	-9260
▁egentlige	-9261
▁filmatisk	-9262
▁potensial	-9263
▁rekkevidde	-9264
▁ål	-9265
▁Dig	-9266
▁Lev	-9267
▁klem	-9268
▁vere	-9269
design	-9270
åringer	-9271
▁djevel	-9272
▁halsen	-9273
▁teller	-9274
▁Leonard	-9275
▁nederst	-9276
▁skurker	-9277
▁snakket	-9278
▁trukket	-9279
▁komplekse	-9280
▁nevneverdig	-9281
.,	-9282
IK	-9283
Bro	-9284
pot	-9285
▁Bas	-9286
▁Dol	-9287
▁arm	-9288
▁ruf	-9289
cener	-9290
▁Mult	-9291
▁skrur	-9292
bevisst	-9293
▁omsten	-9294
▁februar	-9295
▁billigere	-9296
▁sympatiske	-9297
ula	-9298
æsj	-9299
oter	-9300
ulen	-9301
aften	-9302
ftene	-9303
▁Sher	-9304
▁fjes	-9305
▁spart	-9306
inasjon	-9307
▁Mexico	-9308
▁inngang	-9309
▁menyene	-9310
▁typiske	-9311
alisering	-9312
▁framover	-9313
▁svevende	-9314
▁Trondheim	-9315
▁beskrives	-9316
pos	-9317
▁Fle	-9318
arane	-9319
▁jern	-9320
▁agent	-9321
▁jorda	-9322
allfall	-9323
bruddet	-9324
▁Huawei	-9325
▁tiltre	-9326
undtrack	-9327
▁beviser	-9328
eblesende	-9329
▁inderlig	-9330
etterforsker	-9331
▁usannsynlig	-9332
8)	-9333
ns	-9334
bent	-9335
igen	-9336
ivået	-9337
jenta	-9338
kamer	-9339
lings	-9340
▁brem	-9341
antene	-9342
kledde	-9343
▁Helen	-9344
▁Spiel	-9345
▁Utvik	-9346
▁frekk	-9347
▁kledd	-9348
▁akadem	-9349
▁bekost	-9350
▁forbru	-9351
▁høyden	-9352
▁Kristin	-9353
▁Egentlig	-9354
▁material	-9355
▁svakeste	-9356
▁balansert	-9357
▁ungdommer	-9358
▁Rh	-9359
dørs	-9360
▁Len	-9361
▁Call	-9362
▁Show	-9363
▁Eidsv	-9364
▁Kings	-9365
▁Volvo	-9366
▁tortur	-9367
▁dilemma	-9368
▁hysterisk	-9369
▁suksessen	-9370
ads	-9371
byr	-9372
ipl	-9373
orks	-9374
ushi	-9375
▁Hem	-9376
▁Ove	-9377
▁Rap	-9378
▁bos	-9379
▁okku	-9380
▁oven	-9381
kusjon	-9382
▁møtte	-9383
▁takle	-9384
▁tvert	-9385
komment	-9386
▁klokka	-9387
▁regner	-9388
▁tidlige	-9389
▁bestemor	-9390
▁venninne	-9391
programmet	-9392
▁grafikken	-9393
▁stemninger	-9394
▁Ett	-9395
▁Jag	-9396
atsen	-9397
house	-9398
▁Days	-9399
▁røpe	-9400
alking	-9401
delser	-9402
▁tårer	-9403
uminium	-9404
▁dekket	-9405
▁dyster	-9406
▁drukner	-9407
▁kjøttet	-9408
▁merkbart	-9409
▁inviterer	-9410
▁bekostning	-9411
▁intervjuer	-9412
Ad	-9413
Som	-9414
dry	-9415
klær	-9416
▁50-	-9417
engte	-9418
▁2012	-9419
▁Cave	-9420
▁Unge	-9421
▁nikk	-9422
▁gifte	-9423
▁preges	-9424
▁skoene	-9425
▁stiger	-9426
▁stoler	-9427
mericana	-9428
▁advokat	-9429
▁Russland	-9430
▁kameraer	-9431
▁referanse	-9432
▁filmskaper	-9433
EG	-9434
gått	-9435
▁gry	-9436
▁osv	-9437
▁sød	-9438
▁rødt	-9439
ivende	-9440
▁insist	-9441
▁heftige	-9442
▁utvidet	-9443
▁samfunns	-9444
▁prosessen	-9445
▁storebror	-9446
HE	-9447
kop	-9448
itne	-9449
vask	-9450
cenes	-9451
▁Robb	-9452
▁hiss	-9453
▁noir	-9454
▁null	-9455
sanger	-9456
▁Scene	-9457
▁beløn	-9458
▁levde	-9459
▁trans	-9460
▁intrik	-9461
▁logisk	-9462
▁lengsel	-9463
smuligheter	-9464
▁kombinasjonen	-9465
Per	-9466
add	-9467
bul	-9468
lyn	-9469
▁28	-9470
▁Na	-9471
hild	-9472
kets	-9473
▁Syl	-9474
▁nif	-9475
orier	-9476
refer	-9477
▁Mach	-9478
▁1980-	-9479
▁treff	-9480
▁rullet	-9481
▁soldat	-9482
▁trives	-9483
▁publikums	-9484
▁Playstation	-9485
▁kjærlighets	-9486
▁forutsigbart	-9487
▁Spillanmeldelse	-9488
MC	-9489
thur	-9490
▁lak	-9491
▁øya	-9492
▁dømt	-9493
▁juni	-9494
▁tynt	-9495
▁vart	-9496
▁æren	-9497
▁førte	-9498
▁danner	-9499
▁dreper	-9500
avoritter	-9501
modellene	-9502
▁budsjett	-9503
▁gledelig	-9504
▁underfun	-9505
▁katastrofe	-9506
▁skikkelser	-9507
▁sammenhengen	-9508
Sony	-9509
jere	-9510
navn	-9511
▁Bal	-9512
▁Kle	-9513
▁Capp	-9514
▁dumt	-9515
▁sats	-9516
styrke	-9517
▁forny	-9518
▁nytte	-9519
▁Knight	-9520
▁hjemmel	-9521
▁vurdere	-9522
▁kledelig	-9523
▁varierer	-9524
▁Gyldendal	-9525
▁overrasker	-9526
▁programvare	-9527
Te	-9528
fta	-9529
▁ag	-9530
alie	-9531
even	-9532
uste	-9533
▁250	-9534
ksemp	-9535
▁tomt	-9536
slåten	-9537
▁Fordi	-9538
▁Grieg	-9539
▁beina	-9540
▁modus	-9541
▁Bieber	-9542
▁august	-9543
▁tilsku	-9544
iserende	-9545
▁Charles	-9546
▁helhets	-9547
▁kraftige	-9548
▁langsomt	-9549
▁skummelt	-9550
▁megapiksler	-9551
▁overtydelig	-9552
æs	-9553
kat	-9554
Book	-9555
solo	-9556
▁20-	-9557
▁Mir	-9558
endyr	-9559
skole	-9560
▁anna	-9561
▁flyr	-9562
▁kvar	-9563
▁orke	-9564
ptiske	-9565
▁dratt	-9566
▁paret	-9567
ksomhet	-9568
▁påfunn	-9569
▁straff	-9570
▁tjener	-9571
▁krydder	-9572
▁varierte	-9573
▁eksploder	-9574
▁mellomrom	-9575
OP	-9576
åg	-9577
SER	-9578
bout	-9579
edal	-9580
inen	-9581
kjøp	-9582
semb	-9583
▁est	-9584
kvart	-9585
other	-9586
▁Kaiz	-9587
▁dags	-9588
▁jung	-9589
lisert	-9590
serter	-9591
▁Altså	-9592
▁indik	-9593
▁helten	-9594
▁høyder	-9595
▁Jessica	-9596
▁present	-9597
▁skildringen	-9598
900	-9599
idd	-9600
obe	-9601
face	-9602
øres	-9603
▁Hay	-9604
▁Sec	-9605
▁fet	-9606
▁ros	-9607
stede	-9608
▁Stort	-9609
▁blind	-9610
▁borti	-9611
▁sound	-9612
▁spore	-9613
▁trass	-9614
▁lander	-9615
▁regjer	-9616
▁demokrat	-9617
7)	-9618
iør	-9619
eger	-9620
hatt	-9621
krit	-9622
▁Fly	-9623
▁fli	-9624
▁Dire	-9625
▁Hjel	-9626
▁mykt	-9627
▁magen	-9628
▁vaske	-9629
▁Marian	-9630
▁listen	-9631
▁parano	-9632
landskap	-9633
▁knappen	-9634
▁litterær	-9635
fungerende	-9636
▁forbedret	-9637
▁romantikk	-9638
▁klassikere	-9639
▁temperatur	-9640
▁minneverdige	-9641
afe	-9642
fing	-9643
iper	-9644
▁Kor	-9645
▁Lys	-9646
▁2010	-9647
▁Lett	-9648
▁Marg	-9649
▁Math	-9650
▁supp	-9651
▁Julia	-9652
▁regnet	-9653
▁uendelig	-9654
▁kinosalen	-9655
▁belastning	-9656
▁interessen	-9657
▁alternative	-9658
▁utstyrsnivå	-9659
▁Arc	-9660
▁iso	-9661
afest	-9662
pende	-9663
▁Baby	-9664
▁kvin	-9665
rukket	-9666
sammen	-9667
▁Kanye	-9668
▁Mulig	-9669
▁drist	-9670
▁finur	-9671
▁vekke	-9672
▁Platen	-9673
▁Vaular	-9674
▁fleire	-9675
▁skjulte	-9676
▁vandrer	-9677
▁tjeneste	-9678
▁endringer	-9679
▁leilighet	-9680
▁forsterker	-9681
▁humoristisk	-9682
▁mulighetene	-9683
24	-9684
Pro	-9685
akke	-9686
peri	-9687
▁Win	-9688
▁Chic	-9689
▁revy	-9690
venner	-9691
▁låner	-9692
▁Rachel	-9693
▁gleden	-9694
▁japansk	-9695
meldelser	-9696
avspilling	-9697
produserte	-9698
▁velkommen	-9699
▁nødvendige	-9700
▁overbeviser	-9701
Sil	-9702
jef	-9703
▁ED	-9704
kjer	-9705
▁Ane	-9706
▁Led	-9707
▁Por	-9708
Every	-9709
meldt	-9710
radio	-9711
stick	-9712
stret	-9713
ulten	-9714
▁Rain	-9715
ofokus	-9716
studio	-9717
▁Peuge	-9718
▁Texas	-9719
▁diale	-9720
▁flate	-9721
▁Afghan	-9722
▁kjappe	-9723
▁offisi	-9724
aliteter	-9725
▁Susanne	-9726
▁hardere	-9727
-,	-9728
gd	-9729
besk	-9730
▁Pal	-9731
▁fam	-9732
▁Cost	-9733
▁From	-9734
▁aksel	-9735
▁funky	-9736
▁kaffe	-9737
▁liste	-9738
▁tilby	-9739
▁treet	-9740
▁ruller	-9741
▁timing	-9742
▁ruteren	-9743
litteratur	-9744
▁erstattet	-9745
æv	-9746
osa	-9747
uff	-9748
▁7.	-9749
▁web	-9750
ilige	-9751
▁2017	-9752
▁Comp	-9753
▁Fall	-9754
▁Genre	-9755
▁støtt	-9756
▁svakt	-9757
grunnen	-9758
▁rettet	-9759
▁takler	-9760
▁skriker	-9761
▁strenge	-9762
▁Anderson	-9763
▁bestemme	-9764
▁nasjonal	-9765
programmer	-9766
▁Charlotte	-9767
▁engasjert	-9768
▁innbygger	-9769
▁forklaring	-9770
æra	-9771
angs	-9772
aton	-9773
▁arv	-9774
▁nom	-9775
rengt	-9776
▁Dell	-9777
▁Sean	-9778
▁begav	-9779
▁klima	-9780
stemmen	-9781
▁Design	-9782
▁opplys	-9783
▁kritisk	-9784
▁etablerte	-9785
fortellingen	-9786
▁bekjentskap	-9787
ømt	-9788
▁Dor	-9789
▁Ler	-9790
stans	-9791
▁Bush	-9792
▁Geir	-9793
▁rive	-9794
ologen	-9795
ytelsen	-9796
▁bassen	-9797
▁opphav	-9798
▁samliv	-9799
▁toppet	-9800
▁seriøst	-9801
▁Sammenlig	-9802
▁hovedsakelig	-9803
dren	-9804
meny	-9805
▁riv	-9806
asten	-9807
brukt	-9808
illed	-9809
inson	-9810
kling	-9811
rekte	-9812
veter	-9813
ønnen	-9814
▁Camp	-9815
▁rund	-9816
▁tolk	-9817
▁uken	-9818
▁filer	-9819
▁følte	-9820
▁kuttet	-9821
▁masete	-9822
▁nyttig	-9823
▁sendes	-9824
▁iscenes	-9825
▁Lawrence	-9826
▁frustrer	-9827
▁seksuelle	-9828
▁studioalbum	-9829
hit	-9830
blod	-9831
▁Gil	-9832
▁bad	-9833
▁esk	-9834
▁jag	-9835
▁sem	-9836
apper	-9837
oshib	-9838
▁Jenny	-9839
▁stygg	-9840
figuren	-9841
ingenes	-9842
synlige	-9843
▁bemerk	-9844
▁profil	-9845
øyeblikk	-9846
▁gruppen	-9847
▁identif	-9848
▁bagasjer	-9849
▁opererer	-9850
▁dramaturg	-9851
▁melodilin	-9852
▁nostalgisk	-9853
ami	-9854
▁0-	-9855
▁BØ	-9856
agte	-9857
▁Pol	-9858
▁TOR	-9859
▁asi	-9860
▁dob	-9861
▁myr	-9862
endte	-9863
vesen	-9864
▁intu	-9865
▁kali	-9866
▁Helge	-9867
▁disken	-9868
▁opptrer	-9869
▁tvinger	-9870
▁Shakespe	-9871
▁uavhengig	-9872
▁europeiske	-9873
▁eksempelvis	-9874
Far	-9875
▁End	-9876
▁Fur	-9877
årlig	-9878
▁Enda	-9879
▁saus	-9880
▁appen	-9881
▁solop	-9882
kontakt	-9883
▁overdå	-9884
▁sjener	-9885
▁vannet	-9886
iemorder	-9887
sprogram	-9888
▁ensomme	-9889
▁moralsk	-9890
▁stryker	-9891
setninger	-9892
▁balansen	-9893
▁melodisk	-9894
▁konkluder	-9895
▁oppdatert	-9896
▁Washington	-9897
▁utviklerne	-9898
▁heseblesende	-9899
Ben	-9900
fem	-9901
▁7,	-9902
sjef	-9903
▁smal	-9904
plater	-9905
ralske	-9906
▁McCart	-9907
▁dagene	-9908
▁oppfor	-9909
▁optisk	-9910
▁Bergens	-9911
▁aluminium	-9912
▁egenskapene	-9913
▁fortvilelse	-9914
▁kompliserte	-9915
spo	-9916
▁ky	-9917
Tube	-9918
▁Rub	-9919
▁hek	-9920
▁lom	-9921
▁ått	-9922
giver	-9923
▁Ragn	-9924
▁kret	-9925
▁april	-9926
▁hovud	-9927
inkelen	-9928
▁Hansen	-9929
▁dekker	-9930
▁sjefen	-9931
▁sofaen	-9932
▁Cappelen	-9933
▁Elizabeth	-9934
▁overnatur	-9935
▁praktiske	-9936
▁kombinerer	-9937
▁elektronika	-9938
▁Skuespillerne	-9939
ILL	-9940
sex	-9941
▁dr	-9942
evis	-9943
ough	-9944
rinn	-9945
ston	-9946
▁Pål	-9947
▁Rog	-9948
▁pøn	-9949
▁rar	-9950
▁spy	-9951
▁was	-9952
norsk	-9953
▁ører	-9954
ennene	-9955
▁beats	-9956
▁forry	-9957
▁knytt	-9958
▁nakne	-9959
▁trinn	-9960
▁våger	-9961
isasjon	-9962
▁Philip	-9963
▁begjær	-9964
▁innfly	-9965
▁syntes	-9966
▁Rihanna	-9967
▁energien	-9968
▁hvorvidt	-9969
▁batteritid	-9970
▁overbevist	-9971
▁påminnelse	-9972
▁forventning	-9973
?)	-9974
▁Ti	-9975
Just	-9976
acon	-9977
▁FBI	-9978
▁blu	-9979
▁bul	-9980
▁boks	-9981
▁rast	-9982
▁ålre	-9983
▁Grant	-9984
▁prost	-9985
▁Afrika	-9986
▁dommer	-9987
▁klaver	-9988
▁moment	-9989
▁Kaizers	-9990
▁berører	-9991
▁fargene	-9992
▁plassen	-9993
▁spenner	-9994
▁tidsriktig	-9995
MS	-9996
nam	-9997
ree	-9998
oens	-9999
ream	-10000
well	-10001
▁Die	-10002
▁ski	-10003
ionen	-10004
melod	-10005
skift	-10006
▁hust	-10007
▁savn	-10008
▁vakt	-10009
▁vera	-10010
angene	-10011
▁måler	-10012
▁rocken	-10013
▁tråden	-10014
▁Tillatt	-10015
▁Ingenting	-10016
▁arrangementer	-10017
▁internasjonal	-10018
▁gjenkjennelige	-10019
AC	-10020
con	-10021
ryd	-10022
▁3»	-10023
▁64	-10024
irit	-10025
rass	-10026
poeng	-10027
▁Line	-10028
▁Note	-10029
▁mira	-10030
merica	-10031
▁Neste	-10032
▁robot	-10033
innende	-10034
▁Nasjon	-10035
▁Toshib	-10036
▁fiende	-10037
▁YouTube	-10038
okumentar	-10039
▁fantasif	-10040
▁sportslig	-10041
▁syttitall	-10042
▁Regissøren	-10043
▁samspillet	-10044
ces	-10045
lic	-10046
olor	-10047
▁Hjem	-10048
▁Moon	-10049
▁fiff	-10050
issene	-10051
▁Frode	-10052
familie	-10053
▁Tarant	-10054
▁derfra	-10055
▁unngår	-10056
▁konserv	-10057
▁skuffer	-10058
▁strever	-10059
▁Jonathan	-10060
▁bestemte	-10061
▁illusjon	-10062
▁tilbakel	-10063
kjærlighet	-10064
▁ambisiøse	-10065
▁tallerken	-10066
▁tiltalende	-10067
Sc	-10068
Tom	-10069
ird	-10070
nar	-10071
▁FM	-10072
andy	-10073
yret	-10074
▁Nat	-10075
anken	-10076
bygda	-10077
▁Joda	-10078
▁head	-10079
▁hund	-10080
▁Bedre	-10081
▁ironi	-10082
▁traum	-10083
▁videok	-10084
▁elendig	-10085
▁genuint	-10086
▁eleganse	-10087
▁register	-10088
tar	-10089
▁Må	-10090
ners	-10091
▁Bag	-10092
▁Sen	-10093
▁Was	-10094
▁nov	-10095
chool	-10096
manus	-10097
spesi	-10098
uture	-10099
▁Bras	-10100
▁gest	-10101
▁spel	-10102
▁tåle	-10103
liters	-10104
▁spare	-10105
isjonen	-10106
▁morder	-10107
▁ringer	-10108
estående	-10109
▁krydret	-10110
▁Selvsagt	-10111
▁Allikevel	-10112
natt	-10113
syke	-10114
▁dub	-10115
Super	-10116
▁Andr	-10117
▁Patt	-10118
helten	-10119
ulerte	-10120
▁Slike	-10121
▁brann	-10122
▁håret	-10123
landske	-10124
slående	-10125
▁Albert	-10126
▁Andrew	-10127
▁dramat	-10128
▁tysker	-10129
brødrene	-10130
▁Russell	-10131
▁utsiden	-10132
ides	-10133
▁loj	-10134
stegn	-10135
sycho	-10136
▁Gjer	-10137
▁reis	-10138
▁gåseh	-10139
▁taler	-10140
ltimate	-10141
romanen	-10142
ydelige	-10143
▁Edward	-10144
▁Prince	-10145
▁sugger	-10146
▁Thrones	-10147
▁ekstern	-10148
▁melodiske	-10149
▁sammenligne	-10150
▁forutsigbare	-10151
▁tankevekkende	-10152
sef	-10153
▁(3	-10154
▁are	-10155
drett	-10156
fjell	-10157
▁hypn	-10158
▁Grace	-10159
▁Jamie	-10160
▁Vegas	-10161
▁Cruise	-10162
▁Ytelse	-10163
▁spesif	-10164
▁billige	-10165
▁romslig	-10166
▁overgangen	-10167
Min	-10168
▁op	-10169
▁HBO	-10170
▁ure	-10171
kenes	-10172
skrit	-10173
▁Hove	-10174
▁kopi	-10175
atrick	-10176
▁arrog	-10177
▁lener	-10178
ettende	-10179
igering	-10180
ligator	-10181
▁forlot	-10182
▁Country	-10183
▁koselig	-10184
▁kristen	-10185
▁rufsete	-10186
▁Øyafest	-10187
▁dominerer	-10188
▁skrivende	-10189
▁skuffelse	-10190
▁oppløsningen	-10191
DR	-10192
Lo	-10193
New	-10194
uez	-10195
øyen	-10196
▁Mia	-10197
troll	-10198
▁diag	-10199
delsen	-10200
onning	-10201
utgave	-10202
▁Ellen	-10203
▁dører	-10204
▁egner	-10205
▁hvisk	-10206
▁stekt	-10207
handler	-10208
▁Nissan	-10209
▁kjøret	-10210
▁kobler	-10211
▁planet	-10212
▁sliten	-10213
kommende	-10214
▁mengden	-10215
▁dronning	-10216
▁overflate	-10217
▁stemnings	-10218
▁enestående	-10219
Fl	-10220
▁Ak	-10221
lock	-10222
onde	-10223
night	-10224
sters	-10225
▁Seks	-10226
▁anke	-10227
▁treg	-10228
▁Forel	-10229
▁Henry	-10230
▁enden	-10231
▁hever	-10232
▁vokse	-10233
▁kobles	-10234
▁rendyr	-10235
▁Program	-10236
▁dansegul	-10237
▁sjokkerende	-10238
▁skildringer	-10239
▁velfungerende	-10240
Do	-10241
TIN	-10242
ils	-10243
imm	-10244
sfar	-10245
▁Enk	-10246
faste	-10247
▁Depp	-10248
▁Hart	-10249
▁agen	-10250
▁hipp	-10251
▁song	-10252
▁stum	-10253
▁vond	-10254
▁Jakob	-10255
▁annon	-10256
▁moden	-10257
▁Sebast	-10258
▁kongen	-10259
▁Endelig	-10260
▁dvelende	-10261
▁fremmede	-10262
▁nostalgi	-10263
▁etterlater	-10264
▁hverdagslige	-10265
▁Storbritannia	-10266
Rob	-10267
arp	-10268
Rock	-10269
eksp	-10270
▁ild	-10271
våpen	-10272
▁Jazz	-10273
▁ubeg	-10274
▁uunn	-10275
othing	-10276
▁tilsk	-10277
▁trium	-10278
▁Peugeot	-10279
▁aktuell	-10280
▁guttene	-10281
▁sykehus	-10282
▁nyansert	-10283
▁innendørs	-10284
▁Tastaturet	-10285
▁folkemusikk	-10286
nie	-10287
▁Rå	-10288
▁øk	-10289
boer	-10290
▁BØE	-10291
▁utm	-10292
appar	-10293
▁Soul	-10294
ostalg	-10295
▁Aften	-10296
▁Mount	-10297
▁filme	-10298
▁river	-10299
▁separ	-10300
▁utfol	-10301
▁MARTIN	-10302
▁skilte	-10303
▁øverst	-10304
▁Teksten	-10305
▁digital	-10306
▁vakreste	-10307
▁gjennomgang	-10308
SO	-10309
hs	-10310
▁Bay	-10311
▁Gib	-10312
▁Ide	-10313
▁Lik	-10314
▁sad	-10315
stikk	-10316
vinne	-10317
▁Coll	-10318
▁ubet	-10319
flaten	-10320
låtene	-10321
▁Girls	-10322
▁flatt	-10323
▁Carter	-10324
▁komikk	-10325
▁Bildene	-10326
▁komedien	-10327
▁engasjere	-10328
▁kombinere	-10329
▁utforsker	-10330
▁middelmådig	-10331
▁insisterende	-10332
01	-10333
▁IN	-10334
When	-10335
smot	-10336
▁Low	-10337
▁løk	-10338
▁one	-10339
hetsg	-10340
▁Rune	-10341
▁løgn	-10342
▁ørli	-10343
▁later	-10344
iskjenn	-10345
▁Cannes	-10346
▁Willie	-10347
▁forbry	-10348
▁kjønns	-10349
▁midler	-10350
▁vitser	-10351
▁Stemmen	-10352
▁grusomme	-10353
▁prestasjon	-10354
æp	-10355
kul	-10356
bler	-10357
eliv	-10358
rent	-10359
▁Rid	-10360
▁sau	-10361
esing	-10362
lunde	-10363
▁Elis	-10364
▁Gust	-10365
▁mobb	-10366
▁stua	-10367
▁Karin	-10368
▁døren	-10369
▁huden	-10370
▁Walker	-10371
▁episke	-10372
▁storby	-10373
▁utsikt	-10374
▁ansikts	-10375
▁iallfall	-10376
▁produsentene	-10377
følg	-10378
ject	-10379
▁192	-10380
avner	-10381
kjære	-10382
mulig	-10383
uther	-10384
▁Nina	-10385
▁hest	-10386
▁mene	-10387
▁tøft	-10388
skolen	-10389
▁Dance	-10390
▁baker	-10391
▁depre	-10392
▁grand	-10393
▁naive	-10394
▁bygges	-10395
▁innser	-10396
▁lukket	-10397
▁utform	-10398
▁enheten	-10399
▁gjenfor	-10400
historier	-10401
▁ankommer	-10402
▁påtrengende	-10403
SP	-10404
ng	-10405
Mon	-10406
lte	-10407
akes	-10408
▁Get	-10409
▁Ref	-10410
▁fel	-10411
beste	-10412
▁Hugh	-10413
▁Soph	-10414
sbjørn	-10415
▁Power	-10416
▁blink	-10417
▁lufta	-10418
▁Ifølge	-10419
▁passet	-10420
▁pepper	-10421
skjermer	-10422
▁leverte	-10423
▁spissen	-10424
▁lettvint	-10425
▁morsomste	-10426
▁spillerne	-10427
▁persongalleri	-10428
▁rettferdighet	-10429
ria	-10430
vnt	-10431
aver	-10432
oger	-10433
skel	-10434
snes	-10435
▁smy	-10436
anere	-10437
▁Aker	-10438
▁Borg	-10439
▁dunk	-10440
anerne	-10441
▁Faren	-10442
▁blits	-10443
▁kaldt	-10444
▁Svaret	-10445
▁elleve	-10446
▁gående	-10447
▁område	-10448
▁Francis	-10449
▁markeds	-10450
▁voldelig	-10451
▁gigantisk	-10452
▁høyttaler	-10453
▁refleksjoner	-10454
▁internasjonalt	-10455
ious	-10456
lica	-10457
▁Tru	-10458
▁dus	-10459
▁Bang	-10460
▁gale	-10461
objekt	-10462
spilte	-10463
▁brenn	-10464
▁power	-10465
▁rocka	-10466
▁smell	-10467
▁sødme	-10468
▁Batman	-10469
▁mandag	-10470
▁trange	-10471
ellemann	-10472
segmentet	-10473
▁bekrefter	-10474
▁akkompagnert	-10475
LAN	-10476
agog	-10477
felt	-10478
isma	-10479
▁Kra	-10480
▁Lum	-10481
rerte	-10482
▁Dian	-10483
▁Veum	-10484
▁krem	-10485
bruken	-10486
semble	-10487
▁forkant	-10488
▁gjentar	-10489
▁mestrer	-10490
▁bortimot	-10491
▁Stockholm	-10492
Con	-10493
ido	-10494
brød	-10495
▁dik	-10496
▁aust	-10497
▁eien	-10498
merket	-10499
ulerer	-10500
▁kilde	-10501
▁opplø	-10502
språket	-10503
▁luftig	-10504
▁forlate	-10505
▁klippet	-10506
▁plukket	-10507
▁slippes	-10508
▁servitør	-10509
▁karikerte	-10510
▁misforstå	-10511
▁insisterer	-10512
▁Pla	-10513
▁Sty	-10514
▁gav	-10515
▁vib	-10516
seter	-10517
▁Burt	-10518
▁Disk	-10519
▁ekko	-10520
datter	-10521
jøring	-10522
løshet	-10523
server	-10524
▁Sjekk	-10525
▁house	-10526
▁puste	-10527
▁skryte	-10528
▁beholde	-10529
▁kjernen	-10530
▁spisest	-10531
etsigende	-10532
▁kostymer	-10533
▁perioder	-10534
▁opptreden	-10535
▁artikkelen	-10536
▁begeistring	-10537
▁Ri	-10538
Mich	-10539
lers	-10540
▁bin	-10541
▁rum	-10542
fødte	-10543
mpire	-10544
▁Tore	-10545
▁døds	-10546
▁sint	-10547
stilen	-10548
▁krise	-10549
▁tørre	-10550
▁Claire	-10551
▁beskytt	-10552
▁blodige	-10553
▁bryllup	-10554
▁ensform	-10555
▁lesning	-10556
▁søsteren	-10557
▁virkning	-10558
▁flyktning	-10559
▁umiskjenn	-10560
opplevelser	-10561
▁engasjerer	-10562
▁relasjoner	-10563
▁sammensatt	-10564
▁Afghanistan	-10565
▁kommersielle	-10566
▁underliggende	-10567
ando	-10568
sold	-10569
umer	-10570
▁Bach	-10571
▁Kamp	-10572
▁drev	-10573
faktor	-10574
holden	-10575
▁Beyon	-10576
▁Drake	-10577
▁seige	-10578
samling	-10579
smusikk	-10580
ystemet	-10581
▁Arthur	-10582
▁eldste	-10583
▁krigens	-10584
▁blomster	-10585
▁desember	-10586
▁beskrevet	-10587
▁innebygde	-10588
▁eksplosjon	-10589
▁morsommere	-10590
If	-10591
▁fæ	-10592
▁Fal	-10593
▁Kre	-10594
▁ori	-10595
Under	-10596
▁Ross	-10597
▁Stil	-10598
▁Ther	-10599
▁Vamp	-10600
▁gass	-10601
▁popp	-10602
▁firer	-10603
▁styrt	-10604
▁Parker	-10605
▁innfri	-10606
▁reddet	-10607
▁forrett	-10608
▁actionfilm	-10609
▁personligheter	-10610
Big	-10611
▁6,	-10612
hall	-10613
kking	-10614
østen	-10615
▁klam	-10616
▁skip	-10617
▁Never	-10618
▁karik	-10619
skrevne	-10620
▁newton	-10621
▁rammet	-10622
▁reisen	-10623
▁baserer	-10624
▁manuelt	-10625
▁omtalte	-10626
mennesker	-10627
▁Brothers	-10628
▁americana	-10629
▁beskjeden	-10630
▁detaljert	-10631
▁komponert	-10632
▁professor	-10633
▁treffende	-10634
GE	-10635
IFA	-10636
ksw	-10637
▁va	-10638
beth	-10639
fire	-10640
inem	-10641
ungt	-10642
▁Ras	-10643
løper	-10644
rekke	-10645
skikk	-10646
unger	-10647
▁Krim	-10648
▁Kygo	-10649
▁slap	-10650
▁Enten	-10651
▁Joner	-10652
▁unikt	-10653
▁dystop	-10654
▁femten	-10655
▁kamper	-10656
▁vunnet	-10657
▁nedstri	-10658
▁smeller	-10659
armerende	-10660
▁kreftene	-10661
▁konkurrere	-10662
▁skrekkfilm	-10663
▁anledningen	-10664
underholdning	-10665
▁stasjonsvogn	-10666
▁tittelkuttet	-10667
95	-10668
amb	-10669
imp	-10670
rich	-10671
seph	-10672
▁Ott	-10673
▁asf	-10674
ktene	-10675
▁Dest	-10676
▁Hjer	-10677
▁Mann	-10678
▁Post	-10679
▁avis	-10680
▁felt	-10681
▁yter	-10682
atoren	-10683
▁jules	-10684
▁menyer	-10685
fotograf	-10686
▁DinSide	-10687
konserten	-10688
sprosjekt	-10689
▁Tittelen	-10690
▁avsluttet	-10691
▁kontrover	-10692
▁dominerende	-10693
▁understreke	-10694
▁introduserer	-10695
▁kjøreegenskaper	-10696
Ste	-10697
▁Pu	-10698
▁Ash	-10699
▁emp	-10700
klang	-10701
riere	-10702
▁Tekn	-10703
▁ankl	-10704
▁uopp	-10705
drenes	-10706
▁Chrom	-10707
▁Eddie	-10708
▁Gitar	-10709
▁foten	-10710
▁hjert	-10711
▁stilt	-10712
▁stole	-10713
▁Apples	-10714
▁onsdag	-10715
▁stygge	-10716
▁geniale	-10717
galleriet	-10718
▁eksponer	-10719
▁generell	-10720
▁stakkars	-10721
▁drømmende	-10722
▁helhetlig	-10723
▁lillebror	-10724
▁anledninger	-10725
▁kommentarer	-10726
▁komposisjon	-10727
▁ekstrautstyr	-10728
▁ingredienser	-10729
sna	-10730
alif	-10731
loyd	-10732
strø	-10733
▁Cit	-10734
▁Grø	-10735
▁Nob	-10736
▁pøl	-10737
klubb	-10738
veksl	-10739
▁saks	-10740
angrep	-10741
iblant	-10742
rocken	-10743
▁herre	-10744
▁sekst	-10745
▁snert	-10746
sjekter	-10747
▁Kombin	-10748
▁Spiller	-10749
▁medisin	-10750
▁Eastwood	-10751
▁formatet	-10752
▁måltidet	-10753
▁forelsker	-10754
▁perkusjon	-10755
▁barndommen	-10756
kab	-10757
ecil	-10758
fint	-10759
▁jov	-10760
olket	-10761
▁Kari	-10762
▁Kjer	-10763
▁trøst	-10764
▁våren	-10765
avtrykk	-10766
▁drapet	-10767
▁heldig	-10768
▁knappe	-10769
▁tromme	-10770
▁ekstran	-10771
▁fantasy	-10772
▁spanske	-10773
▁spesiale	-10774
▁anbefales	-10775
▁medlemmer	-10776
▁telefoner	-10777
▁replikkene	-10778
▁storslåtte	-10779
▁tilværelse	-10780
▁alternativer	-10781
DI	-10782
pal	-10783
øte	-10784
▁nr	-10785
pert	-10786
pool	-10787
▁Kro	-10788
vokal	-10789
▁adop	-10790
▁frag	-10791
▁real	-10792
kassen	-10793
ydelig	-10794
▁depri	-10795
▁kabel	-10796
▁tette	-10797
▁toget	-10798
bygging	-10799
▁besatt	-10800
▁burger	-10801
▁skilsm	-10802
▁ungene	-10803
▁brettene	-10804
▁paradoks	-10805
▁umiddelbar	-10806
▁spørsmålene	-10807
▁Fortellingen	-10808
Til	-10809
ård	-10810
spiel	-10811
stekt	-10812
▁Liam	-10813
▁fins	-10814
▁line	-10815
▁mach	-10816
▁Stand	-10817
▁Kilden	-10818
▁banale	-10819
▁selges	-10820
▁Records	-10821
▁festlig	-10822
▁stadige	-10823
▁Johansen	-10824
▁Christmas	-10825
▁eksisterer	-10826
▁institusjon	-10827
SI	-10828
ila	-10829
mek	-10830
øen	-10831
▁Bos	-10832
sikre	-10833
▁Foss	-10834
▁grav	-10835
▁komb	-10836
gruppe	-10837
▁Volksw	-10838
▁margin	-10839
aksjoner	-10840
arbeider	-10841
▁litterært	-10842
▁Innimellom	-10843
▁rettferdig	-10844
Fi	-10845
ci	-10846
mal	-10847
▁Jr	-10848
Litt	-10849
appy	-10850
etty	-10851
iful	-10852
▁2.0	-10853
▁Kli	-10854
▁Tab	-10855
derer	-10856
duoen	-10857
skjem	-10858
▁Abel	-10859
▁Oliv	-10860
▁dato	-10861
▁dras	-10862
▁strø	-10863
▁viet	-10864
▁Trans	-10865
▁ivrig	-10866
▁trend	-10867
▁Lengde	-10868
▁innsyn	-10869
▁island	-10870
▁symbol	-10871
▁syrlig	-10872
▁uunngå	-10873
esnittet	-10874
ksemplar	-10875
▁reklame	-10876
▁trykket	-10877
▁fundament	-10878
▁hyggelige	-10879
▁parallell	-10880
▁tilnærmet	-10881
▁bemerkelses	-10882
▁newtonmeter	-10883
▁umiddelbare	-10884
air	-10885
aps	-10886
▁Bø	-10887
egner	-10888
▁1000	-10889
▁Comm	-10890
▁Grim	-10891
▁regg	-10892
▁Hilde	-10893
▁Lewis	-10894
▁episk	-10895
▁løser	-10896
▁skjær	-10897
brenner	-10898
førelse	-10899
førende	-10900
▁formet	-10901
▁bestilt	-10902
▁fokuset	-10903
▁framfor	-10904
▁plukker	-10905
▁utnytte	-10906
▁identisk	-10907
▁planlagt	-10908
▁tragiske	-10909
▁billigste	-10910
▁snarveier	-10911
▁varierende	-10912
▁uinteressant	-10913
oe	-10914
aka	-10915
ool	-10916
vey	-10917
arre	-10918
cean	-10919
▁Kal	-10920
▁Rav	-10921
osser	-10922
terne	-10923
▁gumm	-10924
partiet	-10925
▁fortsett	-10926
▁overføre	-10927
▁desperate	-10928
▁energiske	-10929
▁førstnevnte	-10930
▁forstyrrende	-10931
HD	-10932
Tw	-10933
Tra	-10934
søke	-10935
▁Bør	-10936
▁Div	-10937
▁Ris	-10938
▁non	-10939
idert	-10940
ution	-10941
▁Lisa	-10942
▁know	-10943
▁lune	-10944
egitar	-10945
kongen	-10946
▁Elvis	-10947
▁Louis	-10948
▁Siste	-10949
▁spist	-10950
irrende	-10951
▁Oliver	-10952
▁hjørne	-10953
▁egenart	-10954
setningen	-10955
▁episoden	-10956
▁utvalgte	-10957
▁forretning	-10958
▁motstandere	-10959
lymp	-10960
▁inf	-10961
komst	-10962
▁Sens	-10963
▁Want	-10964
▁innh	-10965
isning	-10966
linjen	-10967
▁River	-10968
▁Roger	-10969
▁sørge	-10970
▁psykop	-10971
▁attrakt	-10972
▁erfarne	-10973
▁markant	-10974
▁massive	-10975
▁nyheter	-10976
▁tvunget	-10977
▁beregnet	-10978
▁forsvare	-10979
forfattere	-10980
▁hjemlandet	-10981
▁irritasjon	-10982
▁konsekvent	-10983
▁tålmodighet	-10984
lov	-10985
pse	-10986
slu	-10987
▁Tø	-10988
amen	-10989
edlem	-10990
gjest	-10991
owboy	-10992
peria	-10993
stell	-10994
▁Greg	-10995
▁Orch	-10996
▁Rose	-10997
▁begr	-10998
▁prat	-10999
▁smår	-11000
edrama	-11001
folket	-11002
▁2013.	-11003
▁Ultra	-11004
▁skift	-11005
▁skilt	-11006
▁Produs	-11007
▁drives	-11008
▁konver	-11009
▁brettet	-11010
▁prester	-11011
glemmelig	-11012
▁unnskyld	-11013
▁fokuserer	-11014
▁kraftigere	-11015
▁kvartetten	-11016
▁politimann	-11017
▁urovekkende	-11018
▁instrumental	-11019
II	-11020
tv	-11021
Son	-11022
▁6.	-11023
odde	-11024
ugge	-11025
▁11.	-11026
▁BOK	-11027
plata	-11028
▁Kent	-11029
alogen	-11030
usende	-11031
varsel	-11032
ytelse	-11033
▁Damon	-11034
▁orker	-11035
▁sverd	-11036
▁været	-11037
stiller	-11038
svinkel	-11039
▁Morgan	-11040
▁ligget	-11041
▁omtalt	-11042
▁America	-11043
▁kantene	-11044
▁overgår	-11045
▁presset	-11046
▁Knausgård	-11047
▁entusiasme	-11048
▁overfladisk	-11049
▁middelaldrende	-11050
øpt	-11051
drøm	-11052
▁Nav	-11053
layer	-11054
uddet	-11055
▁arab	-11056
▁røff	-11057
elsesp	-11058
forman	-11059
kortet	-11060
vendig	-11061
jeneste	-11062
▁drepte	-11063
▁forblø	-11064
▁forvik	-11065
▁tipper	-11066
gumenter	-11067
▁familiem	-11068
▁girkasse	-11069
▁statsmin	-11070
▁Elisabeth	-11071
▁obligator	-11072
▁serieskap	-11073
▁grønnsaker	-11074
▁overbevise	-11075
▁ufrivillig	-11076
▁utstilling	-11077
▁fabelaktige	-11078
▁nittitallet	-11079
▁Fi	-11080
feil	-11081
gate	-11082
iled	-11083
umre	-11084
leden	-11085
▁Blir	-11086
▁Club	-11087
▁this	-11088
drevet	-11089
▁skiva	-11090
filosof	-11091
redende	-11092
▁Effekt	-11093
▁gjenkj	-11094
▁slutte	-11095
▁sårbar	-11096
▁blottet	-11097
▁delikat	-11098
▁forhjul	-11099
▁overalt	-11100
▁styring	-11101
▁trommis	-11102
▁truende	-11103
▁skarpere	-11104
ez	-11105
eves	-11106
krat	-11107
uist	-11108
▁Lud	-11109
▁ost	-11110
allet	-11111
amsun	-11112
klipp	-11113
▁nådd	-11114
feltet	-11115
▁Emily	-11116
▁Gamle	-11117
▁milde	-11118
▁slite	-11119
produkt	-11120
▁Forlag	-11121
▁alminn	-11122
▁lystig	-11123
▁pakken	-11124
▁spekul	-11125
plassert	-11126
▁deilige	-11127
▁russisk	-11128
▁Forskjell	-11129
▁undersiden	-11130
▁vanskelighetsg	-11131
aa	-11132
bia	-11133
▁38	-11134
Fran	-11135
enny	-11136
eveg	-11137
▁Aff	-11138
▁Mis	-11139
akken	-11140
anmel	-11141
▁Corn	-11142
▁Følg	-11143
▁Krig	-11144
▁more	-11145
beredt	-11146
▁Svært	-11147
▁Swift	-11148
▁gater	-11149
▁lekne	-11150
▁mafia	-11151
▁solen	-11152
▁traff	-11153
▁troen	-11154
▁ballen	-11155
▁regler	-11156
punktene	-11157
▁Derimot	-11158
▁anonyme	-11159
▁klokken	-11160
▁trøbbel	-11161
▁Johannes	-11162
▁fargerik	-11163
▁beskjedne	-11164
▁samlingen	-11165
prestasjoner	-11166
."	-11167
søt	-11168
itan	-11169
▁Hag	-11170
været	-11171
▁Tone	-11172
▁pist	-11173
▁stod	-11174
▁velv	-11175
▁øyek	-11176
▁Anbef	-11177
▁Magic	-11178
▁Wayne	-11179
▁Origin	-11180
▁Xperia	-11181
maskiner	-11182
▁Nicolas	-11183
▁Stewart	-11184
▁lydspor	-11185
▁ordinær	-11186
konsollen	-11187
▁ambisiøs	-11188
▁baksetet	-11189
▁forandre	-11190
▁repeterende	-11191
▁vidunderlig	-11192
▁hovedrollene	-11193
reen	-11194
▁Hit	-11195
beint	-11196
▁1080	-11197
▁Auto	-11198
▁heks	-11199
følsom	-11200
førsel	-11201
▁Colin	-11202
▁India	-11203
▁Oslos	-11204
▁penge	-11205
▁satir	-11206
▁sjakk	-11207
▁Astrid	-11208
▁bringe	-11209
▁narkot	-11210
▁priori	-11211
vokalist	-11212
▁monstre	-11213
▁sosialt	-11214
▁spekket	-11215
kjennelse	-11216
▁Utvikler	-11217
▁dedikert	-11218
▁monument	-11219
▁Personlig	-11220
▁forrykende	-11221
▁tilhørende	-11222
▁forelskelse	-11223
tri	-11224
åra	-11225
trol	-11226
▁30-	-11227
▁Rep	-11228
▁jam	-11229
itsch	-11230
prins	-11231
▁Mari	-11232
stolen	-11233
▁Clint	-11234
▁tablå	-11235
▁virtu	-11236
▁world	-11237
▁Hamsun	-11238
▁føltes	-11239
▁rukket	-11240
▁størst	-11241
artister	-11242
retnings	-11243
▁behovet	-11244
▁forsvunnet	-11245
▁testeksemplar	-11246
▁spillopplevelse	-11247
yo	-11248
kny	-11249
phy	-11250
vedt	-11251
▁Sin	-11252
▁sim	-11253
odige	-11254
otten	-11255
øtter	-11256
▁Town	-11257
▁forg	-11258
▁innf	-11259
▁søke	-11260
▁ufar	-11261
▁dekke	-11262
andidat	-11263
annelse	-11264
driften	-11265
▁pusten	-11266
▁skifte	-11267
▁stikke	-11268
ulerende	-11269
▁trådene	-11270
▁ettermid	-11271
▁svingene	-11272
▁velskrevet	-11273
▁gjennomsnittlig	-11274
oto	-11275
▁Lø	-11276
ures	-11277
▁Amb	-11278
▁Bla	-11279
▁Brø	-11280
▁Cli	-11281
estra	-11282
▁Damm	-11283
▁Gary	-11284
▁Long	-11285
▁Popp	-11286
▁byrå	-11287
▁svel	-11288
▁koste	-11289
ripelig	-11290
▁myndig	-11291
▁oppvar	-11292
▁sekser	-11293
▁kjendis	-11294
▁presise	-11295
▁sømløst	-11296
hengighet	-11297
meldinger	-11298
▁feelgood	-11299
sekvensene	-11300
▁autofokus	-11301
▁konflikten	-11302
BC	-11303
col	-11304
jes	-11305
sag	-11306
▁Ki	-11307
fekt	-11308
▁600	-11309
▁Dyb	-11310
▁Maz	-11311
kjørt	-11312
stopp	-11313
▁Dick	-11314
▁Ever	-11315
▁Pier	-11316
▁chil	-11317
▁info	-11318
▁kurs	-11319
▁spru	-11320
drevne	-11321
▁nyinn	-11322
▁smitt	-11323
▁Edvard	-11324
▁Enkelt	-11325
▁ettert	-11326
▁invest	-11327
▁etabler	-11328
▁lengste	-11329
▁ordinære	-11330
▁innledende	-11331
25	-11332
aki	-11333
idi	-11334
jar	-11335
anch	-11336
mass	-11337
rygg	-11338
smål	-11339
åler	-11340
▁snu	-11341
liter	-11342
▁Kina	-11343
▁Real	-11344
▁Stan	-11345
▁Tenk	-11346
▁hero	-11347
ispill	-11348
søster	-11349
▁Ibsen	-11350
▁flash	-11351
▁party	-11352
▁retur	-11353
▁trøkk	-11354
▁vifte	-11355
▁oppbyg	-11356
▁solode	-11357
▁utager	-11358
▁utvide	-11359
markedet	-11360
▁Porsche	-11361
▁Verdens	-11362
▁vennlig	-11363
▁American	-11364
historiens	-11365
▁forandret	-11366
▁introdusert	-11367
▁sentimental	-11368
▁originalitet	-11369
▁Cro	-11370
brand	-11371
drakt	-11372
▁Drøm	-11373
▁Gram	-11374
▁Gull	-11375
▁Snow	-11376
▁Året	-11377
eksten	-11378
ssende	-11379
vender	-11380
▁Story	-11381
▁antik	-11382
▁lunsj	-11383
▁patet	-11384
semblet	-11385
▁Valent	-11386
▁aspekt	-11387
▁høytid	-11388
▁oftere	-11389
følgeren	-11390
▁skremme	-11391
▁fornøyde	-11392
▁seksuelt	-11393
▁noenlunde	-11394
▁selvtillit	-11395
Ant	-11396
ero	-11397
urk	-11398
iano	-11399
illo	-11400
mond	-11401
rali	-11402
▁kel	-11403
aktør	-11404
arder	-11405
innet	-11406
metal	-11407
▁Jørn	-11408
▁What	-11409
▁sene	-11410
▁evige	-11411
▁kolli	-11412
▁times	-11413
lekraft	-11414
▁Tittel	-11415
▁dreiem	-11416
▁fantes	-11417
▁kompis	-11418
▁miksen	-11419
▁morens	-11420
▁rettss	-11421
▁Toshiba	-11422
▁dekning	-11423
▁forbaus	-11424
▁student	-11425
▁formidlet	-11426
▁melodiøse	-11427
▁hastigheten	-11428
sch	-11429
houg	-11430
▁Abs	-11431
▁Che	-11432
▁Lav	-11433
eløst	-11434
▁erke	-11435
▁pens	-11436
▁Danny	-11437
▁stereo	-11438
▁tilbud	-11439
▁vekten	-11440
▁kraften	-11441
▁effekten	-11442
▁nykommer	-11443
▁romanens	-11444
▁utnytter	-11445
▁verdenen	-11446
▁Christensen	-11447
jest	-11448
▁Byr	-11449
▁McG	-11450
issel	-11451
meren	-11452
▁Mand	-11453
▁hall	-11454
▁målt	-11455
bruker	-11456
gården	-11457
rocker	-11458
▁2010.	-11459
▁2014.	-11460
▁Gener	-11461
▁føyer	-11462
▁skurk	-11463
▁strid	-11464
stasjon	-11465
▁appell	-11466
▁bilens	-11467
▁datasp	-11468
▁dybden	-11469
▁puster	-11470
▁uttalt	-11471
figurene	-11472
▁sjanser	-11473
▁albumene	-11474
▁forsøkte	-11475
▁perioden	-11476
▁behandler	-11477
▁forbedring	-11478
▁innpakning	-11479
▁interiøret	-11480
▁desperasjon	-11481
▁suggererende	-11482
▁begrensninger	-11483
eri	-11484
iew	-11485
slo	-11486
▁mo	-11487
ftes	-11488
klet	-11489
okke	-11490
▁Mos	-11491
komne	-11492
ubber	-11493
▁Wolf	-11494
▁gave	-11495
▁gråt	-11496
▁sees	-11497
▁skra	-11498
▁ungt	-11499
fansen	-11500
▁1800-	-11501
▁Aksel	-11502
▁Sonys	-11503
▁Watch	-11504
▁anstr	-11505
▁småby	-11506
▁stive	-11507
▁amatør	-11508
▁kostet	-11509
▁blåsere	-11510
▁mannens	-11511
▁premium	-11512
▁synther	-11513
iligheten	-11514
▁ansvaret	-11515
▁eksterne	-11516
▁enkleste	-11517
▁Sebastian	-11518
▁overraske	-11519
▁økonomiske	-11520
▁sammenhenger	-11521
SE	-11522
hv	-11523
Mad	-11524
mak	-11525
▁tu	-11526
glas	-11527
▁Las	-11528
▁Sna	-11529
▁båt	-11530
▁sme	-11531
esong	-11532
▁Bjer	-11533
▁Hole	-11534
▁Jake	-11535
▁Mind	-11536
▁raff	-11537
▁utby	-11538
nement	-11539
sakene	-11540
▁Craig	-11541
▁Tiden	-11542
▁delta	-11543
▁femti	-11544
▁spont	-11545
▁Ferrar	-11546
▁aktive	-11547
maskinen	-11548
schehoug	-11549
▁Vincent	-11550
▁nytelse	-11551
▁opprett	-11552
▁sjeldne	-11553
▁tvinges	-11554
▁krysning	-11555
▁oppsøker	-11556
▁vidvinkel	-11557
▁karakteren	-11558
▁tilbakelent	-11559
MA	-11560
oot	-11561
irty	-11562
kalt	-11563
▁Ian	-11564
▁lev	-11565
▁mum	-11566
itech	-11567
angere	-11568
▁Klass	-11569
▁Silje	-11570
▁enige	-11571
▁entre	-11572
▁perle	-11573
ligende	-11574
rerende	-11575
▁Motorp	-11576
▁festen	-11577
▁pussig	-11578
▁kaotisk	-11579
▁Jacobsen	-11580
▁biografi	-11581
▁organisk	-11582
shistorien	-11583
▁navigasjon	-11584
▁prisklassen	-11585
haw	-11586
abra	-11587
▁Hat	-11588
▁sut	-11589
▁ule	-11590
▁Gear	-11591
▁Marc	-11592
▁Rent	-11593
▁Ring	-11594
revyen	-11595
▁Tekst	-11596
▁glipp	-11597
▁plikt	-11598
▁sørst	-11599
autiful	-11600
▁Wonder	-11601
▁banker	-11602
▁konger	-11603
▁Øyvind	-11604
American	-11605
▁fordommer	-11606
700	-11607
▁2:	-11608
cing	-11609
punk	-11610
▁Bod	-11611
▁Rem	-11612
▁dek	-11613
stemp	-11614
▁More	-11615
▁oppå	-11616
melsen	-11617
sfjell	-11618
▁forbe	-11619
▁fores	-11620
▁sorte	-11621
▁spent	-11622
ellåten	-11623
▁Joseph	-11624
▁panser	-11625
▁pompøs	-11626
▁ulykke	-11627
▁varmen	-11628
førelsen	-11629
▁Patrick	-11630
▁innover	-11631
▁miljøer	-11632
▁punktum	-11633
▁utgaver	-11634
utvikling	-11635
▁utpreget	-11636
▁utvalget	-11637
▁Aschehoug	-11638
▁skandinav	-11639
▁sedvanlige	-11640
▁kontroversi	-11641
ré	-11642
Mer	-11643
blir	-11644
eper	-11645
lokk	-11646
oken	-11647
▁Mem	-11648
▁isp	-11649
▁løg	-11650
▁åre	-11651
▁Barn	-11652
▁Magg	-11653
▁klin	-11654
▁småp	-11655
oderne	-11656
▁Håkon	-11657
▁Svein	-11658
issører	-11659
▁idylli	-11660
▁avsnitt	-11661
▁lysende	-11662
▁pompøse	-11663
▁Michelle	-11664
▁uskyldig	-11665
▁innvendig	-11666
▁setninger	-11667
Alt	-11668
anim	-11669
cene	-11670
kall	-11671
▁GPS	-11672
▁Guy	-11673
elvet	-11674
▁Gall	-11675
▁låse	-11676
▁human	-11677
▁svære	-11678
▁Sondre	-11679
▁kjøpes	-11680
▁skitne	-11681
▁sørget	-11682
▁tegnet	-11683
▁rytmisk	-11684
▁trafikk	-11685
sentiment	-11686
▁beskytte	-11687
▁repertoar	-11688
▁filmatiske	-11689
▁mikrofonen	-11690
▁orkesteret	-11691
▁gjenstander	-11692
▁realistiske	-11693
▁stillestående	-11694
EA	-11695
cé	-11696
Car	-11697
zel	-11698
▁1-	-11699
▁5-	-11700
▁Rø	-11701
rien	-11702
▁Lis	-11703
▁iOS	-11704
agent	-11705
tempo	-11706
▁Bour	-11707
▁flør	-11708
▁lyss	-11709
▁ramp	-11710
allere	-11711
bøkene	-11712
▁Solid	-11713
▁rører	-11714
▁sanne	-11715
▁skive	-11716
▁trodd	-11717
▁kreves	-11718
▁rocker	-11719
▁håpløst	-11720
▁tettere	-11721
▁pretensi	-11722
▁avslappet	-11723
▁uhyggelig	-11724
▁emosjonelt	-11725
▁selvsikker	-11726
▁åttitallet	-11727
▁representert	-11728
gal	-11729
vic	-11730
▁dv	-11731
agne	-11732
▁21.	-11733
▁Lov	-11734
banen	-11735
liste	-11736
oklyn	-11737
urene	-11738
▁Kath	-11739
▁gata	-11740
▁ifra	-11741
▁vits	-11742
trilog	-11743
▁bidra	-11744
▁onkel	-11745
attform	-11746
▁Golden	-11747
▁Menyen	-11748
▁Rodrig	-11749
inntrykk	-11750
▁animerte	-11751
▁distanse	-11752
▁kapitler	-11753
▁støyende	-11754
▁utrolige	-11755
▁briljerer	-11756
▁forbilled	-11757
▁dynamikken	-11758
▁handlekraft	-11759
▁intelligens	-11760
▁Selvfølgelig	-11761
▁utfordringene	-11762
▁Kø	-11763
ited	-11764
▁10.	-11765
▁hag	-11766
▁pal	-11767
oster	-11768
▁Evil	-11769
▁afro	-11770
▁syne	-11771
abrikk	-11772
boksen	-11773
ettene	-11774
▁Brand	-11775
▁dusin	-11776
▁farer	-11777
▁lages	-11778
▁levet	-11779
treffer	-11780
▁Servit	-11781
▁fraser	-11782
▁prøvek	-11783
▁rødvin	-11784
▁reality	-11785
▁trengte	-11786
▁oppgaven	-11787
▁bekymring	-11788
▁generelle	-11789
▁gjenskape	-11790
▁imponerte	-11791
▁emosjonell	-11792
)»	-11793
ups	-11794
▁vs	-11795
ains	-11796
aming	-11797
isont	-11798
oenix	-11799
oline	-11800
▁Kåre	-11801
▁good	-11802
▁gris	-11803
▁arena	-11804
▁dress	-11805
▁gedig	-11806
▁hukom	-11807
▁kjemi	-11808
▁sprud	-11809
inngang	-11810
▁damene	-11811
▁nedtur	-11812
▁tilhør	-11813
▁alvoret	-11814
▁brukere	-11815
▁demoner	-11816
▁katalog	-11817
▁kristne	-11818
restaurant	-11819
▁argumenter	-11820
▁involverte	-11821
▁arrangement	-11822
▁inspirasjonskil	-11823
Bre	-11824
adis	-11825
akka	-11826
edia	-11827
stin	-11828
▁Cle	-11829
▁Ten	-11830
musik	-11831
ronic	-11832
▁frie	-11833
▁baner	-11834
▁chili	-11835
▁fyren	-11836
▁hevet	-11837
▁Sigrid	-11838
▁Timber	-11839
▁omgitt	-11840
▁ålreit	-11841
▁Asbjørn	-11842
▁følsomme	-11843
▁progress	-11844
▁sårbarhet	-11845
▁voldelige	-11846
▁behagelige	-11847
▁interesserte	-11848
▁batterilevetid	-11849
45	-11850
to	-11851
▁39	-11852
▁Ah	-11853
▁pi	-11854
ario	-11855
gard	-11856
hvit	-11857
icks	-11858
leng	-11859
▁(!)	-11860
▁Dou	-11861
▁Død	-11862
▁boy	-11863
mekan	-11864
▁Burn	-11865
▁Pers	-11866
▁fjær	-11867
▁road	-11868
▁sørg	-11869
stemer	-11870
▁Debut	-11871
▁skriv	-11872
varende	-11873
verende	-11874
▁Bruker	-11875
fortjent	-11876
▁kommand	-11877
▁mobiler	-11878
▁innleder	-11879
▁religiøs	-11880
▁språklig	-11881
▁tilbehør	-11882
▁Underveis	-11883
menneskelig	-11884
åpentligvis	-11885
▁behandling	-11886
▁kategorien	-11887
▁utagerende	-11888
68	-11889
▁Ok	-11890
addy	-11891
fjes	-11892
slin	-11893
slåt	-11894
▁Att	-11895
▁Gau	-11896
▁Wes	-11897
▁sag	-11898
deleg	-11899
skarp	-11900
▁Dani	-11901
▁Skam	-11902
▁down	-11903
▁jent	-11904
▁laga	-11905
▁smug	-11906
uttene	-11907
▁Davis	-11908
▁Times	-11909
▁dømme	-11910
▁hende	-11911
▁medit	-11912
▁night	-11913
▁volds	-11914
▁Veldig	-11915
▁dyrene	-11916
▁entrer	-11917
▁raseri	-11918
▁skadet	-11919
▁streit	-11920
onerende	-11921
▁sekvens	-11922
▁tastene	-11923
▁videoen	-11924
▁fengsels	-11925
▁trenings	-11926
▁overflødig	-11927
▁rimeligere	-11928
▁soundtrack	-11929
▁mesteparten	-11930
▁uimotståelig	-11931
På	-11932
Int	-11933
----	-11934
stud	-11935
symp	-11936
▁Sor	-11937
hagen	-11938
sfylt	-11939
▁2008	-11940
▁Prix	-11941
▁Topp	-11942
▁nedt	-11943
ppelin	-11944
▁essay	-11945
▁forne	-11946
▁førti	-11947
▁innov	-11948
▁svare	-11949
▁uvent	-11950
▁Hannah	-11951
▁Sivert	-11952
▁titler	-11953
favoritt	-11954
▁hektisk	-11955
▁skrives	-11956
▁årsaken	-11957
▁desidert	-11958
▁spenstig	-11959
▁debuterer	-11960
▁fornuftig	-11961
▁intensjon	-11962
▁lydsporet	-11963
▁refleksjon	-11964
▁oppskriften	-11965
▁hovedpersonens	-11966
ef	-11967
hu	-11968
apir	-11969
saus	-11970
asket	-11971
orene	-11972
plugg	-11973
ussen	-11974
▁bedt	-11975
▁girl	-11976
▁svim	-11977
▁Cecil	-11978
▁Munch	-11979
▁blekk	-11980
▁bonde	-11981
▁bruks	-11982
▁livsl	-11983
identen	-11984
ragende	-11985
▁Verden	-11986
▁spreng	-11987
▁vegger	-11988
▁Manuset	-11989
▁Logitech	-11990
▁tilstede	-11991
▁autoritet	-11992
▁humoristiske	-11993
▁problematisk	-11994
bec	-11995
iti	-11996
Dark	-11997
bryt	-11998
hode	-11999
isje	-12000
▁Pen	-12001
eling	-12002
illen	-12003
ringe	-12004
splan	-12005
▁Week	-12006
▁asyl	-12007
▁rein	-12008
▁tast	-12009
▁Mitch	-12010
▁Slikt	-12011
▁grove	-12012
▁silke	-12013
▁touch	-12014
sepsjon	-12015
▁muslim	-12016
▁skinne	-12017
▁timene	-12018
▁foruten	-12019
▁isolert	-12020
▁oppsett	-12021
▁symfoni	-12022
▁bestefar	-12023
▁fokusert	-12024
▁håndtere	-12025
▁frustrasjon	-12026
▁konkurransen	-12027
▁observasjoner	-12028
35	-12029
ii	-12030
kok	-12031
▁Yt	-12032
▁Bab	-12033
▁Here	-12034
▁Opel	-12035
▁late	-12036
▁1960-	-12037
▁André	-12038
▁Tross	-12039
▁grått	-12040
▁havne	-12041
▁slent	-12042
▁tjent	-12043
tenksom	-12044
▁Willis	-12045
▁sjeler	-12046
engasjer	-12047
▁elskede	-12048
▁forsker	-12049
▁interne	-12050
▁kampene	-12051
▁karisma	-12052
▁snubler	-12053
▁svikter	-12054
▁Samsungs	-12055
journalist	-12056
▁Metallica	-12057
▁kontrollen	-12058
Fe	-12059
▁?	-12060
edi	-12061
når	-12062
una	-12063
wan	-12064
▁7-	-12065
▁EA	-12066
▁År	-12067
John	-12068
▁17-	-12069
▁Sub	-12070
Drive	-12071
▁Care	-12072
▁Varg	-12073
▁byer	-12074
▁heve	-12075
▁veit	-12076
senter	-12077
▁kjølv	-12078
▁parti	-12079
▁Franco	-12080
▁sniker	-12081
▁styres	-12082
▁manglet	-12083
▁takknem	-12084
▁uuthold	-12085
▁avslutte	-12086
▁massevis	-12087
▁skredder	-12088
▁kameraene	-12089
▁slapstick	-12090
▁Volkswagen	-12091
▁oppgradert	-12092
▁beskrivelse	-12093
▁klassikeren	-12094
▁minneverdig	-12095
eman	-12096
havn	-12097
▁Ble	-12098
▁Gru	-12099
▁RAM	-12100
ivene	-12101
▁Frog	-12102
▁gong	-12103
▁verb	-12104
øyelig	-12105
▁Arena	-12106
▁belys	-12107
▁drift	-12108
olution	-12109
▁Neeson	-12110
▁dannet	-12111
▁dørene	-12112
▁kriger	-12113
▁nevner	-12114
▁utenpå	-12115
konkurran	-12116
▁ansikter	-12117
▁tilskudd	-12118
▁fyrverker	-12119
▁transport	-12120
▁gigantiske	-12121
▁resulterer	-12122
▁kommunikasjon	-12123
Eg	-12124
Max	-12125
Red	-12126
orig	-12127
tsen	-12128
▁(20	-12129
▁DAB	-12130
▁Wol	-12131
riter	-12132
▁Horn	-12133
▁Mort	-12134
bryter	-12135
kampen	-12136
ollere	-12137
trinns	-12138
▁baren	-12139
▁bygda	-12140
egående	-12141
▁Totalt	-12142
▁fingre	-12143
▁gården	-12144
▁smiler	-12145
lignende	-12146
spunkter	-12147
▁gåsehud	-12148
▁kretser	-12149
▁turtall	-12150
▁holdning	-12151
▁tematisk	-12152
▁tilpasse	-12153
▁uventede	-12154
imensjonale	-12155
▁begynnelse	-12156
▁elektriske	-12157
▁utstillingen	-12158
▁verdensrommet	-12159
▁animasjonsfilm	-12160
gro	-12161
▁tw	-12162
cial	-12163
ekon	-12164
▁con	-12165
▁ryd	-12166
gamle	-12167
inett	-12168
lista	-12169
sberg	-12170
▁Gord	-12171
▁Jord	-12172
▁Lise	-12173
▁Ting	-12174
▁Wild	-12175
▁bitt	-12176
▁røyk	-12177
altern	-12178
pperen	-12179
steder	-12180
▁Kelly	-12181
▁Laura	-12182
▁innad	-12183
▁opera	-12184
▁Marcus	-12185
faktoren	-12186
▁kaliber	-12187
▁kaptein	-12188
▁bestille	-12189
▁folkelig	-12190
▁oppstart	-12191
▁partiene	-12192
▁karikatur	-12193
▁kollektiv	-12194
▁menneskeheten	-12195
RET	-12196
ablo	-12197
fler	-12198
vang	-12199
▁Ven	-12200
larer	-12201
▁Mali	-12202
▁Sara	-12203
▁Side	-12204
▁ener	-12205
▁fyll	-12206
▁skim	-12207
Christ	-12208
Warner	-12209
▁bygde	-12210
▁skygg	-12211
▁Scenen	-12212
▁school	-12213
▁vinden	-12214
▁tilføre	-12215
produsert	-12216
▁fortalte	-12217
▁negativt	-12218
▁strømfor	-12219
▁utendørs	-12220
▁dynamiske	-12221
▁menneskers	-12222
▁politimannen	-12223
bom	-12224
ovo	-12225
▁cd	-12226
iket	-12227
oene	-12228
utta	-12229
▁Blå	-12230
▁Box	-12231
▁Fel	-12232
▁KON	-12233
melen	-12234
omfru	-12235
▁Dial	-12236
▁Rena	-12237
▁enke	-12238
▁vulg	-12239
irsdag	-12240
vidden	-12241
▁Einar	-12242
▁Hagen	-12243
▁Sigur	-12244
▁klage	-12245
▁Spania	-12246
▁fylles	-12247
▁lading	-12248
reisende	-12249
▁Beyoncé	-12250
▁Machine	-12251
▁frykten	-12252
▁kjelleren	-12253
▁forskjeller	-12254
▁tradisjonen	-12255
▁urettferdig	-12256
▁frustrerende	-12257
DS	-12258
OC	-12259
Ut	-12260
kål	-12261
ekom	-12262
kyst	-12263
▁Dow	-12264
▁Row	-12265
buten	-12266
▁Flor	-12267
▁mess	-12268
▁ping	-12269
▁tips	-12270
elling	-12271
modige	-12272
velden	-12273
▁Aldri	-12274
▁gripe	-12275
▁krutt	-12276
▁pubert	-12277
▁blender	-12278
▁fjellet	-12279
▁grillet	-12280
▁morderen	-12281
▁Nashville	-12282
▁Telefonen	-12283
▁premisser	-12284
▁produktet	-12285
▁risikerer	-12286
▁ungdommen	-12287
▁formidabel	-12288
▁Terningkast	-12289
urte	-12290
▁Ret	-12291
▁Tok	-12292
▁old	-12293
asset	-12294
lyden	-12295
▁2018	-12296
▁Rolf	-12297
▁skot	-12298
bygget	-12299
istens	-12300
▁Langt	-12301
▁Marsh	-12302
▁epost	-12303
▁harry	-12304
▁kalte	-12305
▁aktivt	-12306
▁perler	-12307
▁Henning	-12308
▁birolle	-12309
▁kyniske	-12310
▁synkron	-12311
▁forunder	-12312
▁Orchestra	-12313
▁Plutselig	-12314
▁hovedrett	-12315
▁kulissene	-12316
▁installert	-12317
▁sofistikert	-12318
Gu	-12319
ekl	-12320
las	-12321
▁Bi	-12322
gler	-12323
ikop	-12324
kser	-12325
makt	-12326
mesk	-12327
otta	-12328
▁løy	-12329
▁klov	-12330
▁koke	-12331
▁rens	-12332
▁smer	-12333
benken	-12334
bruket	-12335
skraft	-12336
▁grupp	-12337
▁røper	-12338
▁trivi	-12339
▁Argent	-12340
▁Kontra	-12341
▁Sophie	-12342
▁Spider	-12343
▁dyrker	-12344
▁husets	-12345
▁påkost	-12346
▁steget	-12347
stendige	-12348
▁fiktive	-12349
▁komiker	-12350
▁setning	-12351
▁vinduet	-12352
▁sangeren	-12353
▁severdig	-12354
▁behandlet	-12355
▁mislykket	-12356
amerikanske	-12357
▁konstatere	-12358
▁kunstneren	-12359
▁millimeter	-12360
▁politikere	-12361
▁komfortabel	-12362
▁gjennomtenkt	-12363
▁Øyafestivalen	-12364
NA	-12365
oul	-12366
▁(4	-12367
Alle	-12368
boks	-12369
øyde	-12370
▁øke	-12371
ierer	-12372
trekk	-12373
▁Know	-12374
▁elev	-12375
▁låte	-12376
kaller	-12377
▁Lynch	-12378
▁Media	-12379
▁Perry	-12380
▁fored	-12381
▁vider	-12382
grafikk	-12383
nærende	-12384
▁ispedd	-12385
▁saftige	-12386
▁skurrer	-12387
▁Fortsatt	-12388
▁briljant	-12389
▁rystende	-12390
høytidelig	-12391
orienterte	-12392
▁Dagbladet	-12393
▁omstendig	-12394
▁minimalistisk	-12395
At	-12396
Pe	-12397
agh	-12398
▁Hø	-12399
beat	-12400
▁Hus	-12401
▁påp	-12402
▁Linn	-12403
▁bade	-12404
▁beat	-12405
akende	-12406
ulykke	-12407
▁Figur	-12408
▁duket	-12409
▁skatt	-12410
▁unger	-12411
styrken	-12412
▁Utgang	-12413
▁Videre	-12414
▁forank	-12415
▁fornem	-12416
▁sjelen	-12417
▁ekteføl	-12418
▁kjeller	-12419
▁verdier	-12420
▁dialoger	-12421
▁overlever	-12422
▁sekstitall	-12423
▁skreddersy	-12424
▁forbilledlig	-12425
▁innspillingen	-12426
▁bildekvaliteten	-12427
Om	-12428
Ali	-12429
war	-12430
iers	-12431
skra	-12432
ssel	-12433
▁190	-12434
▁Joy	-12435
▁isk	-12436
medag	-12437
▁Sann	-12438
▁Stig	-12439
▁mote	-12440
assere	-12441
ordene	-12442
skolor	-12443
strert	-12444
▁Amund	-12445
▁Slott	-12446
▁anelse	-12447
▁fakter	-12448
▁fisken	-12449
▁kastes	-12450
▁massiv	-12451
▁sitron	-12452
▁tonene	-12453
handling	-12454
▁Chicago	-12455
▁Eriksen	-12456
▁Madonna	-12457
▁mønster	-12458
versjoner	-12459
▁Zeppelin	-12460
▁hardcore	-12461
▁århundre	-12462
▁barnefilm	-12463
▁mistenker	-12464
▁skriveren	-12465
▁utseendet	-12466
▁Spellemann	-12467
▁menneskets	-12468
▁funksjonene	-12469
▁prosessoren	-12470
▁undervurder	-12471
▁forskjellene	-12472
▁arrangementene	-12473
▁fjernkontrollen	-12474
hr	-12475
Ver	-12476
kas	-12477
ways	-12478
▁Pur	-12479
▁hær	-12480
rolig	-12481
▁2007	-12482
▁Fron	-12483
▁Luke	-12484
klisje	-12485
parken	-12486
▁Rundt	-12487
▁Space	-12488
▁bagat	-12489
▁flørt	-12490
▁innpå	-12491
▁lagde	-12492
unksjon	-12493
▁Nikola	-12494
▁forseg	-12495
▁hvorav	-12496
▁skrift	-12497
▁sparer	-12498
▁Grafikk	-12499
løsninger	-12500
▁gjenstår	-12501
▁utroskap	-12502
▁Spielberg	-12503
▁varianten	-12504
▁dieselmotor	-12505
aug	-12506
pas	-12507
▁Au	-12508
adow	-12509
mpen	-12510
velt	-12511
▁Hos	-12512
▁Kin	-12513
▁McK	-12514
▁Tob	-12515
feste	-12516
▁Blom	-12517
▁Emin	-12518
▁Owen	-12519
▁Pitt	-12520
ething	-12521
▁Storm	-12522
▁innby	-12523
▁proff	-12524
dramaet	-12525
melding	-12526
▁Future	-12527
▁Wright	-12528
▁fremhe	-12529
▁slitne	-12530
▁Språket	-12531
▁spekter	-12532
▁sårbare	-12533
▁årsaker	-12534
▁Brooklyn	-12535
▁anbefalt	-12536
▁rapperen	-12537
menneskelige	-12538
▁forfattaren	-12539
▁oppløftende	-12540
▁introduksjon	-12541
act	-12542
SERT	-12543
oice	-12544
rael	-12545
skru	-12546
▁Cat	-12547
▁Fis	-12548
▁Moz	-12549
▁Rim	-12550
▁Holm	-12551
▁Snar	-12552
▁Stad	-12553
▁fuzz	-12554
▁spin	-12555
arrang	-12556
dingen	-12557
merker	-12558
▁Jimmy	-12559
▁Køben	-12560
▁filmp	-12561
▁hånda	-12562
▁kjekt	-12563
styring	-12564
▁Hjorth	-12565
▁sansen	-12566
▁tilløp	-12567
▁utslag	-12568
sessoren	-12569
▁Kenneth	-12570
▁dyreste	-12571
▁speiler	-12572
forteller	-12573
▁innstilling	-12574
▁seksualitet	-12575
RA	-12576
Get	-12577
osm	-12578
kake	-12579
omet	-12580
▁Tat	-12581
alget	-12582
igger	-12583
pelig	-12584
taler	-12585
▁dyrt	-12586
▁fars	-12587
▁hule	-12588
▁sylt	-12589
▁tyve	-12590
▁ving	-12591
▁0-100	-12592
▁Peder	-12593
▁Samme	-12594
▁heart	-12595
▁hevde	-12596
▁lomme	-12597
▁revet	-12598
▁støyn	-12599
omentet	-12600
▁Dagens	-12601
▁Åpning	-12602
sommelig	-12603
▁skitten	-12604
▁appeller	-12605
▁tillater	-12606
▁detaljrik	-12607
▁verdighet	-12608
▁hastigheter	-12609
▁psykologiske	-12610
▁eksistensielle	-12611
ér	-12612
esh	-12613
kun	-12614
lex	-12615
udt	-12616
zon	-12617
Good	-12618
lukt	-12619
▁Går	-12620
▁etn	-12621
barna	-12622
ogger	-12623
▁Ivar	-12624
▁Nich	-12625
▁besi	-12626
▁glas	-12627
▁rede	-12628
▁tåre	-12629
hammer	-12630
▁Nikon	-12631
▁draps	-12632
▁foren	-12633
▁nyhet	-12634
▁sklir	-12635
▁tykke	-12636
debuten	-12637
gruppen	-12638
hengige	-12639
▁Howard	-12640
▁Murphy	-12641
▁anslag	-12642
▁ramler	-12643
▁renner	-12644
▁utmatt	-12645
register	-12646
▁beholdt	-12647
▁besøker	-12648
▁fjernet	-12649
orientert	-12650
▁fordeler	-12651
▁grunnlag	-12652
▁kreativt	-12653
▁Tarantino	-12654
▁ivaretatt	-12655
▁produkter	-12656
▁fellesskap	-12657
▁hovedstaden	-12658
▁mobiltelefoner	-12659
kry	-12660
sier	-12661
strå	-12662
▁Lag	-12663
▁Rey	-12664
▁VGs	-12665
jones	-12666
▁PCer	-12667
▁erob	-12668
▁stir	-12669
enskap	-12670
risten	-12671
▁bakke	-12672
▁patri	-12673
▁taper	-12674
briller	-12675
sikkert	-12676
▁barnes	-12677
▁grense	-12678
▁logikk	-12679
▁skapes	-12680
▁tenner	-12681
▁forhand	-12682
▁låtskri	-12683
▁psykisk	-12684
▁skygger	-12685
opptreden	-12686
▁formater	-12687
▁sekundet	-12688
▁skjebner	-12689
▁Konserten	-12690
▁artistene	-12691
▁irriterer	-12692
▁overganger	-12693
▁ubehagelige	-12694
▁konstruksjon	-12695
▁sentimentale	-12696
▁omstendigheter	-12697
She	-12698
gon	-12699
jev	-12700
▁fy	-12701
søte	-12702
▁12.	-12703
▁Nar	-12704
▁Run	-12705
▁Sum	-12706
▁pyn	-12707
odern	-12708
søkte	-12709
▁Elli	-12710
▁Mass	-12711
▁True	-12712
▁mors	-12713
etting	-12714
onerte	-12715
yboard	-12716
▁feire	-12717
▁plant	-12718
▁porno	-12719
▁roter	-12720
spektiv	-12721
▁blodet	-12722
▁hyppig	-12723
▁matche	-12724
virkning	-12725
▁Rolling	-12726
▁beveget	-12727
▁fienden	-12728
▁glasset	-12729
▁kollekt	-12730
▁konsoll	-12731
▁matcher	-12732
▁sparker	-12733
▁færreste	-12734
▁pågående	-12735
▁ressurser	-12736
▁forestille	-12737
▁eksentriske	-12738
▁samarbeidspart	-12739
Sm	-12740
ugo	-12741
▁6-	-12742
ores	-12743
▁10-	-12744
▁Ala	-12745
▁ESP	-12746
raden	-12747
▁outs	-12748
ierock	-12749
▁Aleks	-12750
▁Elise	-12751
▁lader	-12752
▁rømme	-12753
▁spiss	-12754
stykker	-12755
▁bredde	-12756
▁tillit	-12757
▁viking	-12758
▁Trenger	-12759
▁animert	-12760
▁oversky	-12761
▁pedagog	-12762
▁kritiske	-12763
▁beretning	-12764
▁eksemplar	-12765
▁oppvisning	-12766
▁fremragende	-12767
▁hardtslående	-12768
Ex	-12769
ww	-12770
LED	-12771
abl	-12772
oma	-12773
alla	-12774
ever	-12775
smod	-12776
▁Wat	-12777
▁sus	-12778
skjel	-12779
ssete	-12780
▁2000	-12781
▁Fred	-12782
▁Gang	-12783
▁flor	-12784
▁teit	-12785
barnet	-12786
jekter	-12787
smodus	-12788
▁2009.	-12789
▁Eirik	-12790
▁påske	-12791
ksessen	-12792
▁Kultur	-12793
▁glatte	-12794
▁single	-12795
▁skjøre	-12796
▁totale	-12797
▁ødeleg	-12798
illusjon	-12799
ringende	-12800
▁Anmeldt	-12801
▁KONSERT	-12802
▁ensemble	-12803
▁parodisk	-12804
▁deriblant	-12805
▁gjentatte	-12806
▁mysterium	-12807
▁Produksjonen	-12808
▁overnaturlige	-12809
13	-12810
!).	-12811
How	-12812
plu	-12813
ype	-12814
▁8-	-12815
▁bå	-12816
▁Ør	-12817
▁Gig	-12818
▁Lok	-12819
▁Nel	-12820
▁Pia	-12821
ertak	-12822
isken	-12823
lader	-12824
▁sunn	-12825
▁Camer	-12826
▁Moren	-12827
▁nyter	-12828
▁Ganske	-12829
▁trenge	-12830
▁Nettopp	-12831
▁dristig	-12832
▁grupper	-12833
▁begrepet	-12834
▁utdatert	-12835
likasjoner	-12836
▁balansere	-12837
▁kamskjell	-12838
▁favoritter	-12839
▁forførende	-12840
▁funksjonen	-12841
▁overføring	-12842
TI	-12843
Gra	-12844
bid	-12845
ebo	-12846
oft	-12847
ped	-12848
▁fn	-12849
▁py	-12850
▁Fug	-12851
igura	-12852
panel	-12853
umper	-12854
▁Mads	-12855
▁Vårt	-12856
▁kapp	-12857
▁leir	-12858
▁play	-12859
▁sole	-12860
norske	-12861
▁savne	-12862
▁Marius	-12863
▁beskyl	-12864
▁blanke	-12865
▁import	-12866
▁stramt	-12867
tredende	-12868
▁MacBook	-12869
▁knytter	-12870
▁utlever	-12871
▁Coldplay	-12872
▁orienter	-12873
▁prinsesse	-12874
▁kontrasten	-12875
▁usikkerhet	-12876
▁demonstrerer	-12877
▁intetsigende	-12878
▁introduseres	-12879
BL	-12880
ELD	-12881
ait	-12882
Life	-12883
▁MED	-12884
umber	-12885
▁Lena	-12886
▁Todd	-12887
▁diam	-12888
mingen	-12889
▁Every	-12890
▁Steen	-12891
▁kompl	-12892
▁lovet	-12893
▁satse	-12894
▁snitt	-12895
▁åpnes	-12896
interes	-12897
▁Eminem	-12898
▁Middel	-12899
▁bittel	-12900
▁skjegg	-12901
▁Forrige	-12902
▁seriøse	-12903
▁Victoria	-12904
▁innspilt	-12905
▁solskinn	-12906
▁ultimate	-12907
▁hjertevar	-12908
▁sensasjon	-12909
▁kjølvannet	-12910
▁eksemplarer	-12911
17	-12912
Co	-12913
lef	-12914
pur	-12915
rør	-12916
pres	-12917
serv	-12918
▁Mål	-12919
rette	-12920
▁Anth	-12921
▁Whit	-12922
▁løft	-12923
▁falsk	-12924
ettelse	-12925
omatisk	-12926
▁bytter	-12927
▁spansk	-12928
▁stjele	-12929
▁øvelse	-12930
kulturen	-12931
▁bestand	-12932
▁langdry	-12933
▁politik	-12934
▁protest	-12935
▁besitter	-12936
▁innspill	-12937
▁Lydbildet	-12938
▁depresjon	-12939
▁etterkant	-12940
▁besnærende	-12941
▁tenåringer	-12942
vt	-12943
▁55	-12944
▁ym	-12945
etar	-12946
oget	-12947
brutt	-12948
ifest	-12949
sidig	-12950
vilje	-12951
▁Irak	-12952
▁Siri	-12953
▁Viet	-12954
▁brun	-12955
ennlig	-12956
ilight	-12957
minist	-12958
radere	-12959
▁Drive	-12960
▁Speed	-12961
▁folks	-12962
▁iskal	-12963
▁stunt	-12964
▁fordom	-12965
▁livene	-12966
▁seriøs	-12967
▁ansatte	-12968
▁suveren	-12969
▁motvillig	-12970
▁kassegitar	-12971
▁Motorpsycho	-12972
▁dramatikken	-12973
▁Sammenlignet	-12974
▁generasjonen	-12975
▁Utgangspunktet	-12976
▁hodetelefonene	-12977
Go	-12978
Hva	-12979
Met	-12980
Run	-12981
▁jø	-12982
ango	-12983
godt	-12984
ritt	-12985
sman	-12986
song	-12987
unda	-12988
gårde	-12989
iende	-12990
ubile	-12991
ellere	-12992
gutten	-12993
såvidt	-12994
voksen	-12995
▁Kraft	-12996
▁bekje	-12997
▁brodd	-12998
▁manøv	-12999
▁seint	-13000
▁Arnold	-13001
▁August	-13002
▁Foster	-13003
▁Killer	-13004
▁artige	-13005
▁farvel	-13006
▁kompri	-13007
▁nyhets	-13008
▁trynet	-13009
artisten	-13010
▁Frogner	-13011
▁bruksom	-13012
▁frykter	-13013
▁presser	-13014
▁Overrask	-13015
▁nominert	-13016
▁stilling	-13017
▁ekteparet	-13018
▁fengslende	-13019
▁frontfigur	-13020
▁Forskjellen	-13021
▁høyttaleren	-13022
▁teknologien	-13023
▁forbløffende	-13024
▁dokumentarfilm	-13025
Bad	-13026
ahn	-13027
flu	-13028
nev	-13029
atar	-13030
nete	-13031
osse	-13032
skij	-13033
skna	-13034
▁AMD	-13035
▁Gul	-13036
▁Web	-13037
▁røm	-13038
▁tus	-13039
isode	-13040
kabel	-13041
legge	-13042
▁Andy	-13043
▁WLAN	-13044
▁faen	-13045
▁oppi	-13046
▁pizz	-13047
▁sola	-13048
▁sosi	-13049
formet	-13050
jålete	-13051
skogen	-13052
▁Tvert	-13053
▁drakt	-13054
▁light	-13055
▁nådde	-13056
▁reist	-13057
▁steel	-13058
▁stivt	-13059
rakende	-13060
▁plaget	-13061
▁sviger	-13062
▁zombie	-13063
▁fungert	-13064
▁innfrir	-13065
isasjonen	-13066
▁substans	-13067
▁vellaget	-13068
▁Internett	-13069
▁katastrof	-13070
▁underlige	-13071
▁utmerkede	-13072
▁medlemmene	-13073
▁oppdragene	-13074
▁Imponerende	-13075
▁bildestabil	-13076
▁dokumentaren	-13077
▁konsentrasjon	-13078
rib	-13079
tro	-13080
▁47	-13081
▁ex	-13082
▁Asp	-13083
annon	-13084
ivold	-13085
oking	-13086
ulige	-13087
▁bjør	-13088
amling	-13089
▁gjemt	-13090
▁helte	-13091
▁kjens	-13092
▁match	-13093
▁okkup	-13094
høyttal	-13095
området	-13096
verdien	-13097
▁Dennis	-13098
▁Passat	-13099
▁Utover	-13100
▁reddes	-13101
▁Phoenix	-13102
▁avgårde	-13103
▁betaler	-13104
▁kvinnes	-13105
▁stilige	-13106
▁valgene	-13107
▁endelige	-13108
▁fingersp	-13109
▁voldtekt	-13110
▁detaljerte	-13111
▁likegyldig	-13112
Så	-13113
!),	-13114
ence	-13115
iert	-13116
sbre	-13117
▁tod	-13118
pping	-13119
stisk	-13120
ueens	-13121
unden	-13122
ynder	-13123
▁Reyn	-13124
▁koll	-13125
ønstre	-13126
▁arven	-13127
▁oppst	-13128
▁pusle	-13129
▁sånne	-13130
▁Hammer	-13131
▁Jesper	-13132
▁anlegg	-13133
▁brødre	-13134
▁galler	-13135
▁rammen	-13136
▁skrang	-13137
▁studie	-13138
▁sønner	-13139
▁tolker	-13140
▁velmen	-13141
asiteten	-13142
▁Roberts	-13143
▁Marianne	-13144
▁omslaget	-13145
▁autentisk	-13146
▁brennende	-13147
▁forvirret	-13148
skildringer	-13149
▁forfatterne	-13150
▁stillegående	-13151
lut	-13152
rio	-13153
rob	-13154
▁Fj	-13155
▁as	-13156
Take	-13157
bell	-13158
gift	-13159
stro	-13160
esund	-13161
▁Grøn	-13162
▁Lenn	-13163
▁blei	-13164
▁have	-13165
▁will	-13166
Little	-13167
▁Flott	-13168
▁Pluss	-13169
▁grave	-13170
▁leste	-13171
▁spark	-13172
▁idrett	-13173
▁påstår	-13174
▁strand	-13175
▁stryke	-13176
▁ferdige	-13177
▁logiske	-13178
▁motorer	-13179
▁servere	-13180
▁symboli	-13181
▁temaene	-13182
▁volumet	-13183
▁konfront	-13184
▁påvirker	-13185
▁Forestill	-13186
▁dataspill	-13187
▁forsåvidt	-13188
forfatteren	-13189
▁ferdigheter	-13190
▁høydepunktet	-13191
Sex	-13192
kir	-13193
▁Ax	-13194
▁MG	-13195
anes	-13196
aves	-13197
iles	-13198
urné	-13199
▁Job	-13200
▁len	-13201
alter	-13202
andra	-13203
▁Enig	-13204
▁endt	-13205
▁mora	-13206
▁plak	-13207
▁ulov	-13208
▁Arild	-13209
▁Høyde	-13210
▁Rosen	-13211
▁lokke	-13212
▁patos	-13213
▁strøk	-13214
▁vegne	-13215
▁Robbie	-13216
▁Studio	-13217
▁lekent	-13218
▁regnes	-13219
▁sirkus	-13220
▁tiåret	-13221
▁ørlite	-13222
▁Douglas	-13223
▁Eventyr	-13224
▁kompens	-13225
▁singler	-13226
▁estetikk	-13227
▁aggressiv	-13228
▁forandrer	-13229
▁installere	-13230
▁plassering	-13231
▁kontrollere	-13232
▁nettleseren	-13233
iar	-13234
igg	-13235
▁42	-13236
▁AS	-13237
dram	-13238
korn	-13239
▁Unn	-13240
▁tha	-13241
▁vik	-13242
redde	-13243
▁Capt	-13244
▁Cast	-13245
▁Skil	-13246
▁Vold	-13247
▁Greit	-13248
▁Minne	-13249
▁Målet	-13250
▁Thomp	-13251
▁barns	-13252
▁Skjønt	-13253
▁Skulle	-13254
▁begått	-13255
▁genial	-13256
▁gidder	-13257
▁nordisk	-13258
▁rockens	-13259
▁smelter	-13260
▁stramme	-13261
språklige	-13262
▁homofile	-13263
▁horisont	-13264
▁lavmælte	-13265
▁trofaste	-13266
▁utfordre	-13267
▁vestlige	-13268
▁forsvarer	-13269
▁potensielt	-13270
▁intensiteten	-13271
▁kjærlighetss	-13272
Ber	-13273
▁44	-13274
▁Mø	-13275
▁OL	-13276
bunn	-13277
vnen	-13278
▁13,	-13279
▁15-	-13280
▁Dun	-13281
▁Kia	-13282
▁Lem	-13283
▁Let	-13284
▁Rik	-13285
aljer	-13286
idens	-13287
▁døra	-13288
▁lede	-13289
▁team	-13290
bakken	-13291
cenene	-13292
spolit	-13293
▁Skoda	-13294
▁Sterk	-13295
▁fikse	-13296
▁usymp	-13297
Michael	-13298
▁Harvey	-13299
▁farten	-13300
▁sorgen	-13301
▁taster	-13302
▁topper	-13303
▁trengt	-13304
▁Oftebro	-13305
▁stilles	-13306
▁varsler	-13307
▁hjemmebane	-13308
▁målgruppen	-13309
▁resultater	-13310
▁konspirasjon	-13311
fet	-13312
ykt	-13313
▁4-	-13314
▁Næ	-13315
▁hæ	-13316
psyk	-13317
razy	-13318
ufor	-13319
▁Ess	-13320
▁kve	-13321
iemor	-13322
psjon	-13323
▁Cher	-13324
▁Takk	-13325
▁hate	-13326
▁idiot	-13327
▁melde	-13328
▁smale	-13329
aturlig	-13330
▁Alfred	-13331
▁Arcade	-13332
▁Sangen	-13333
▁betalt	-13334
▁fanden	-13335
▁horror	-13336
▁nervøs	-13337
▁oppfyl	-13338
▁reggae	-13339
▁samles	-13340
▁vertik	-13341
▁årevis	-13342
formance	-13343
▁givende	-13344
▁sjarmen	-13345
▁småbarn	-13346
▁øyekast	-13347
▁forlaget	-13348
▁forsøket	-13349
▁poplåter	-13350
▁skeptisk	-13351
▁viktigst	-13352
▁Timberlake	-13353
▁ekteskapet	-13354
▁bildekvalitet	-13355
▁fortellingene	-13356
AP	-13357
Kn	-13358
Og	-13359
yk	-13360
ée	-13361
chi	-13362
iki	-13363
aman	-13364
frie	-13365
more	-13366
obby	-13367
omer	-13368
srik	-13369
vakt	-13370
▁320	-13371
▁Åge	-13372
craft	-13373
▁2005	-13374
▁fork	-13375
▁kafé	-13376
▁kris	-13377
▁okse	-13378
artere	-13379
toning	-13380
▁Sonic	-13381
▁antar	-13382
▁bokas	-13383
▁prosa	-13384
▁røver	-13385
illings	-13386
▁Carrie	-13387
▁Senere	-13388
▁intime	-13389
▁likeså	-13390
▁Snarere	-13391
▁fasaden	-13392
▁normale	-13393
▁råvarer	-13394
▁skryter	-13395
▁delikate	-13396
▁intriger	-13397
amerikansk	-13398
▁ensformig	-13399
klassikeren	-13400
▁grafikkort	-13401
▁skapninger	-13402
▁bensinmotor	-13403
Mac	-13404
...)	-13405
boys	-13406
hopp	-13407
seth	-13408
▁240	-13409
▁Beh	-13410
▁Lib	-13411
▁Zen	-13412
ektet	-13413
▁grim	-13414
skifte	-13415
sykkel	-13416
▁Meget	-13417
▁Party	-13418
▁Visst	-13419
▁Waits	-13420
▁avvik	-13421
▁Aurora	-13422
▁Mikael	-13423
▁Mindre	-13424
▁Skjerm	-13425
▁butikk	-13426
▁gatene	-13427
▁inntar	-13428
▁kilder	-13429
▁kjøres	-13430
▁minnes	-13431
▁nærlig	-13432
▁randen	-13433
▁trompet	-13434
▁uheldig	-13435
▁sprekker	-13436
▁tøffeste	-13437
▁vinteren	-13438
▁fantasien	-13439
▁konsentrert	-13440
▁kreativitet	-13441
▁betraktninger	-13442
Hot	-13443
▁3.0	-13444
▁Ark	-13445
▁Arm	-13446
▁bød	-13447
White	-13448
adder	-13449
ippet	-13450
skilt	-13451
▁2016	-13452
▁Gaga	-13453
▁Mode	-13454
▁Walt	-13455
▁Phone	-13456
▁deles	-13457
▁slitt	-13458
▁smile	-13459
ballade	-13460
▁skyhøy	-13461
▁utfall	-13462
ståelige	-13463
▁Gabriel	-13464
▁snakkes	-13465
▁hengende	-13466
▁verdener	-13467
▁harmonisk	-13468
▁soldatene	-13469
▁harddisken	-13470
▁konkurrent	-13471
▁pulserende	-13472
▁vokalisten	-13473
▁fjernkontroll	-13474
▁konsekvensene	-13475
ATA	-13476
EMI	-13477
fyr	-13478
elte	-13479
foni	-13480
rale	-13481
rash	-13482
uble	-13483
yper	-13484
▁Pin	-13485
▁STE	-13486
▁Sno	-13487
▁hul	-13488
orrow	-13489
styrt	-13490
tning	-13491
▁bist	-13492
▁døgn	-13493
▁kval	-13494
▁pike	-13495
▁øvre	-13496
kastet	-13497
marken	-13498
nerten	-13499
▁Bjell	-13500
▁rydde	-13501
▁utfyl	-13502
ekamera	-13503
spekter	-13504
▁Sandra	-13505
▁slappe	-13506
▁tidleg	-13507
▁tretti	-13508
aksjonen	-13509
▁Renault	-13510
▁korleis	-13511
▁moderat	-13512
struksjon	-13513
▁markerer	-13514
▁utnyttet	-13515
▁fargerikt	-13516
▁uengasjer	-13517
▁uskyldige	-13518
▁grunnlaget	-13519
▁tilfeldige	-13520
▁journalisten	-13521
▁prestasjoner	-13522
Mag	-13523
urs	-13524
gode	-13525
▁Ind	-13526
▁Jud	-13527
▁cru	-13528
▁hil	-13529
flørt	-13530
itete	-13531
ivoli	-13532
parti	-13533
▁Innt	-13534
▁Mess	-13535
▁Prim	-13536
▁Styr	-13537
▁Walk	-13538
▁funn	-13539
▁sper	-13540
lement	-13541
seende	-13542
sprang	-13543
▁Nesbø	-13544
▁North	-13545
▁hvile	-13546
▁kolon	-13547
verdier	-13548
▁Eksemp	-13549
▁Gordon	-13550
▁sykkel	-13551
▁tviler	-13552
tommeren	-13553
utvalget	-13554
▁fargesp	-13555
▁voksent	-13556
osisjoner	-13557
problemer	-13558
▁dinosaur	-13559
▁etablere	-13560
▁negative	-13561
▁Rodriguez	-13562
▁formidles	-13563
▁gitarsolo	-13564
▁Kjærlighet	-13565
▁reflekterer	-13566
▁beskrivelser	-13567
▁operativsystem	-13568
AV	-13569
jå	-13570
"),	-13571
any	-13572
dog	-13573
sur	-13574
assa	-13575
ayne	-13576
lies	-13577
vegg	-13578
▁40-	-13579
▁Egg	-13580
▁Sle	-13581
anget	-13582
dager	-13583
enfor	-13584
ordin	-13585
svart	-13586
▁Synd	-13587
▁lagd	-13588
esnitt	-13589
fattig	-13590
▁Cross	-13591
▁Miljø	-13592
▁digre	-13593
▁kvikk	-13594
andinav	-13595
▁Tidvis	-13596
▁gjenta	-13597
▁mimikk	-13598
▁setene	-13599
▁allmenn	-13600
▁benytte	-13601
▁prisene	-13602
▁trønder	-13603
▁groteske	-13604
▁helstøpt	-13605
▁forsvinne	-13606
▁oversetter	-13607
▁spektakulær	-13608
▁stillferdig	-13609
▁menneskelighet	-13610
cky	-13611
oir	-13612
tør	-13613
▁uf	-13614
High	-13615
elta	-13616
gens	-13617
kjør	-13618
▁Bli	-13619
▁bun	-13620
Dette	-13621
Heart	-13622
keren	-13623
kveld	-13624
opran	-13625
ralsk	-13626
▁Iver	-13627
▁Muse	-13628
▁Pres	-13629
▁hins	-13630
feller	-13631
landsk	-13632
ppende	-13633
▁First	-13634
▁diger	-13635
▁latin	-13636
▁micro	-13637
▁reson	-13638
▁suppe	-13639
usiness	-13640
▁Arbeid	-13641
▁Nordst	-13642
▁etasje	-13643
▁nerven	-13644
▁selvut	-13645
▁turist	-13646
itulerte	-13647
▁Clooney	-13648
▁Foruten	-13649
▁gjenspe	-13650
▁hvitbal	-13651
▁sjalusi	-13652
▁subtile	-13653
▁Reynolds	-13654
▁barnebok	-13655
▁fokusere	-13656
▁melodram	-13657
▁personen	-13658
▁forsiktige	-13659
▁oppgradere	-13660
▁scenografi	-13661
▁amerikanerne	-13662
▁umiskjennelig	-13663
33	-13664
aya	-13665
eli	-13666
hey	-13667
ould	-13668
wing	-13669
▁Set	-13670
▁Ton	-13671
▁che	-13672
dater	-13673
eksik	-13674
▁2015.	-13675
▁Bobby	-13676
▁Olymp	-13677
▁Still	-13678
▁folka	-13679
▁fryde	-13680
▁nøyer	-13681
▁skjør	-13682
▁synet	-13683
rikende	-13684
ulering	-13685
▁Philli	-13686
▁fornær	-13687
▁Anthony	-13688
▁endring	-13689
▁berøring	-13690
▁familiel	-13691
▁kontekst	-13692
▁trygghet	-13693
behandling	-13694
▁Henriksen	-13695
▁Konseptet	-13696
▁anstrengt	-13697
▁betjening	-13698
▁meldinger	-13699
▁eventyrlig	-13700
▁sikkerhets	-13701
▁tilhengere	-13702
▁amerikanere	-13703
▁desillusjon	-13704
▁forbausende	-13705
▁hovedpersoner	-13706
▁fortellerstemme	-13707
65	-13708
Ro	-13709
cos	-13710
åle	-13711
▁(5	-13712
▁Im	-13713
here	-13714
ware	-13715
▁13.	-13716
▁Hop	-13717
▁Nol	-13718
▁Sov	-13719
▁Wen	-13720
▁egg	-13721
ironi	-13722
▁Away	-13723
▁Halv	-13724
▁kjør	-13725
▁skol	-13726
▁ymse	-13727
gument	-13728
jemper	-13729
metall	-13730
▁Again	-13731
▁Trier	-13732
▁banal	-13733
alderen	-13734
atørene	-13735
tenberg	-13736
▁hindre	-13737
▁jakter	-13738
▁jammen	-13739
▁kloden	-13740
▁smidig	-13741
▁lekende	-13742
▁monoton	-13743
▁referer	-13744
▁testbil	-13745
▁Familien	-13746
▁balladen	-13747
▁bilspill	-13748
▁butikken	-13749
▁fattigdom	-13750
▁melodrama	-13751
▁nettverks	-13752
▁språklige	-13753
▁oppveksten	-13754
spillerdelen	-13755
▁samfunnskrit	-13756
▁fingeravtrykk	-13757
Ge	-13758
vy	-13759
asis	-13760
edyr	-13761
hull	-13762
sbok	-13763
▁tun	-13764
▁Edge	-13765
▁Head	-13766
▁emin	-13767
▁pasi	-13768
▁trær	-13769
denter	-13770
egjeng	-13771
▁Barry	-13772
▁Earth	-13773
▁Honor	-13774
▁koser	-13775
▁kåret	-13776
▁Amanda	-13777
▁Walter	-13778
▁hyller	-13779
▁magien	-13780
▁maskul	-13781
▁nevrot	-13782
▁skiver	-13783
▁svette	-13784
struktur	-13785
▁Monster	-13786
▁bisarre	-13787
▁daglige	-13788
▁fordelt	-13789
▁gangene	-13790
▁lyriske	-13791
▁umulige	-13792
▁Karakter	-13793
▁ettertid	-13794
▁grensene	-13795
▁bygninger	-13796
▁eksistens	-13797
▁eksotiske	-13798
▁aggressive	-13799
▁forfatterskap	-13800
Id	-13801
And	-13802
Sam	-13803
ego	-13804
King	-13805
agon	-13806
best	-13807
▁Ibs	-13808
▁Pac	-13809
▁hed	-13810
▁nit	-13811
drick	-13812
▁Figh	-13813
▁Spar	-13814
▁inva	-13815
status	-13816
▁Blake	-13817
▁Glenn	-13818
▁Jesse	-13819
▁Pixar	-13820
▁never	-13821
▁snike	-13822
skiftet	-13823
umentet	-13824
▁Sverre	-13825
▁Winter	-13826
▁bokser	-13827
▁demper	-13828
▁festet	-13829
▁nærvær	-13830
▁tampen	-13831
sforhold	-13832
▁Sørensen	-13833
▁benyttet	-13834
▁detektiv	-13835
▁konkrete	-13836
▁seksuell	-13837
▁eksepsjon	-13838
▁europeisk	-13839
▁galskapen	-13840
egenskapene	-13841
▁Slottsfjell	-13842
▁nærliggende	-13843
▁hovedrettene	-13844
▁persongalleriet	-13845
▁sentimentalitet	-13846
18	-13847
uet	-13848
cock	-13849
måte	-13850
▁Ene	-13851
▁Nev	-13852
▁Sta	-13853
▁rak	-13854
▁spå	-13855
achim	-13856
kjøtt	-13857
▁360-	-13858
▁Aske	-13859
▁Otto	-13860
▁gård	-13861
▁make	-13862
▁park	-13863
▁rakk	-13864
▁sopp	-13865
▁Alder	-13866
▁Annie	-13867
▁Child	-13868
▁Colle	-13869
▁Stian	-13870
▁målte	-13871
▁skryt	-13872
▁stapp	-13873
alender	-13874
villige	-13875
▁Battle	-13876
▁Elsker	-13877
▁Legend	-13878
▁forvek	-13879
▁hustru	-13880
▁kunder	-13881
▁timers	-13882
▁overrum	-13883
forskjell	-13884
skildring	-13885
teknologi	-13886
▁fortreff	-13887
▁lanserte	-13888
▁København	-13889
▁Universal	-13890
▁bestevenn	-13891
▁lysstyrke	-13892
▁tragedien	-13893
▁ufattelig	-13894
▁landsbygda	-13895
▁kontrollert	-13896
▁nettbrettet	-13897
▁presidenten	-13898
▁programleder	-13899
▁åpningssporet	-13900
▁følelsesmessig	-13901
▁klaustrofobisk	-13902
▁spesifikasjoner	-13903
Cap	-13904
ova	-13905
▁75	-13906
bygd	-13907
etet	-13908
▁140	-13909
▁sob	-13910
hardt	-13911
ubert	-13912
▁Dust	-13913
▁Ekte	-13914
▁Eyes	-13915
▁Gjør	-13916
▁Onkl	-13917
▁anek	-13918
▁krum	-13919
▁Barne	-13920
▁Lucas	-13921
▁Melod	-13922
▁fylte	-13923
▁rykte	-13924
▁ydmyk	-13925
▁armene	-13926
▁sikter	-13927
▁sprang	-13928
▁svever	-13929
▁applaus	-13930
▁indiske	-13931
▁veggene	-13932
▁debatten	-13933
▁karikert	-13934
▁melodien	-13935
▁slitsomt	-13936
▁forandring	-13937
▁gnistrende	-13938
▁regissører	-13939
▁mellomtiden	-13940
Am	-13941
Ph	-13942
ogj	-13943
skv	-13944
abit	-13945
aril	-13946
debu	-13947
dele	-13948
dert	-13949
ical	-13950
ralt	-13951
▁18-	-13952
▁Aud	-13953
▁pik	-13954
assis	-13955
egget	-13956
fjord	-13957
strem	-13958
suppe	-13959
usser	-13960
▁2004	-13961
▁Jung	-13962
▁fuck	-13963
▁stam	-13964
▁taus	-13965
▁ubes	-13966
▁what	-13967
lappen	-13968
▁Kjøre	-13969
▁Størr	-13970
▁dance	-13971
▁greid	-13972
▁ladet	-13973
▁ringe	-13974
▁Dreams	-13975
▁cowboy	-13976
▁lyrisk	-13977
▁Humoren	-13978
▁Hvilket	-13979
▁novelle	-13980
▁forstått	-13981
glemmelige	-13982
▁bortskjem	-13983
▁fremfører	-13984
▁indikerer	-13985
▁plasseres	-13986
▁leiligheten	-13987
▁selvopptatt	-13988
OL	-13989
cel	-13990
▁Nm	-13991
brig	-13992
poet	-13993
seks	-13994
▁20.	-13995
▁Får	-13996
▁Hav	-13997
▁Tøn	-13998
▁dyn	-13999
▁got	-14000
bland	-14001
enhet	-14002
▁Gard	-14003
▁Kiss	-14004
▁utsl	-14005
▁vrir	-14006
okkene	-14007
▁(2010	-14008
▁Neder	-14009
▁avskj	-14010
▁sikte	-14011
▁topps	-14012
▁ukomp	-14013
▁Mozart	-14014
▁indisk	-14015
▁usikre	-14016
premiere	-14017
tittelen	-14018
▁bakhjul	-14019
▁radioen	-14020
▁selvfor	-14021
▁stunder	-14022
▁ufarlig	-14023
▁optimalt	-14024
▁overklasse	-14025
▁reaksjoner	-14026
▁sekvensene	-14027
▁Shakespeare	-14028
▁kommersiell	-14029
▁lanseringen	-14030
▁ettertenksom	-14031
▁oversettelse	-14032
▁låtmaterialet	-14033
9-	-14034
DA	-14035
Da	-14036
rk	-14037
Han	-14038
kil	-14039
Fire	-14040
atts	-14041
olie	-14042
rikk	-14043
▁180	-14044
▁2,5	-14045
▁AMG	-14046
▁Ama	-14047
▁Cir	-14048
▁bab	-14049
diale	-14050
ivind	-14051
løste	-14052
▁Kill	-14053
▁Noah	-14054
▁disp	-14055
▁finn	-14056
▁uber	-14057
▁Josef	-14058
▁dødsf	-14059
▁esken	-14060
▁ledig	-14061
kraften	-14062
▁kjeder	-14063
▁kokain	-14064
▁skulpt	-14065
aliserte	-14066
▁Ferrari	-14067
▁dialekt	-14068
▁eiendom	-14069
▁utfører	-14070
▁utvider	-14071
▁uforløst	-14072
▁bunnsolid	-14073
▁undergrunn	-14074
▁underholder	-14075
▁profesjonelle	-14076
▁Oh	-14077
▁Act	-14078
▁Nap	-14079
▁sch	-14080
inene	-14081
litte	-14082
orisk	-14083
vicen	-14084
▁Bird	-14085
▁Even	-14086
▁Fram	-14087
▁kver	-14088
▁ligg	-14089
▁pynt	-14090
▁rase	-14091
▁want	-14092
batter	-14093
▁Miley	-14094
▁champ	-14095
▁doble	-14096
▁lades	-14097
▁moroa	-14098
demping	-14099
▁Kjetil	-14100
▁Streep	-14101
▁brenne	-14102
▁brytes	-14103
arilabra	-14104
skriving	-14105
▁negativ	-14106
▁nøktern	-14107
▁partner	-14108
▁tirsdag	-14109
▁Rogaland	-14110
▁angriper	-14111
▁dirigent	-14112
▁uproblem	-14113
▁Prosessor	-14114
▁landsbyen	-14115
▁mysteriet	-14116
▁sedvanlig	-14117
▁spøkelses	-14118
▁karismatiske	-14119
▁forkjærlighet	-14120
▁tilfredsstille	-14121
").	-14122
▁8,	-14123
MELD	-14124
dose	-14125
kjær	-14126
resp	-14127
urch	-14128
▁17.	-14129
▁Kyr	-14130
jamin	-14131
skamp	-14132
▁Atle	-14133
▁Cage	-14134
▁Cass	-14135
▁Clar	-14136
▁Scar	-14137
▁rull	-14138
uksess	-14139
▁Affle	-14140
▁Dynam	-14141
▁Elena	-14142
▁Focus	-14143
▁kjede	-14144
▁løses	-14145
alenter	-14146
sjanger	-14147
▁fikser	-14148
▁glemte	-14149
▁trener	-14150
veksling	-14151
▁forsvin	-14152
▁kamerat	-14153
utgivelse	-14154
▁koreograf	-14155
▁potensiale	-14156
▁situasjonene	-14157
yne	-14158
▁ye	-14159
▁Cyr	-14160
blues	-14161
dalen	-14162
enget	-14163
plikt	-14164
▁Næss	-14165
diskut	-14166
forten	-14167
▁2008.	-14168
▁Ocean	-14169
▁døtre	-14170
▁julet	-14171
▁koker	-14172
▁tolke	-14173
atteren	-14174
▁Hyunda	-14175
▁Silver	-14176
▁skader	-14177
▁sulten	-14178
▁vinkel	-14179
▁ekspert	-14180
▁jødiske	-14181
▁lengter	-14182
▁lidelse	-14183
▁trilogi	-14184
hastighet	-14185
▁estetisk	-14186
▁komedier	-14187
▁melodiøs	-14188
▁strenger	-14189
▁ytterste	-14190
industrien	-14191
▁barnebarn	-14192
▁fenomenet	-14193
▁kinesiske	-14194
▁klisjeene	-14195
▁komponist	-14196
▁kunstnere	-14197
▁nettsider	-14198
▁tendenser	-14199
▁Stemningen	-14200
▁offisielle	-14201
▁ingrediensene	-14202
▁overbevisning	-14203
!».	-14204
▁uka	-14205
ckers	-14206
iøret	-14207
▁Coen	-14208
▁Drag	-14209
▁dets	-14210
▁røre	-14211
hallen	-14212
▁1990-	-14213
▁Karpe	-14214
▁Linda	-14215
▁Nexus	-14216
▁Petra	-14217
▁Svart	-14218
▁Telen	-14219
▁spørs	-14220
teksten	-14221
telefon	-14222
▁Herlig	-14223
▁People	-14224
▁gifter	-14225
▁multim	-14226
▁scorer	-14227
▁sikret	-14228
▁ledelse	-14229
▁skalaen	-14230
▁voksende	-14231
▁aktivitet	-14232
▁ambisiøst	-14233
▁følsomhet	-14234
▁henvender	-14235
▁intrikate	-14236
▁skuldrene	-14237
spirasjonen	-14238
▁Servitøren	-14239
▁kulturelle	-14240
▁skilsmisse	-14241
▁sprudlende	-14242
▁illustrerer	-14243
▁potensielle	-14244
Av	-14245
Bar	-14246
våg	-14247
▁RS	-14248
tegn	-14249
årig	-14250
▁Pil	-14251
eremy	-14252
løses	-14253
▁Bent	-14254
▁Chap	-14255
▁Lara	-14256
▁Link	-14257
▁Meny	-14258
▁Wahl	-14259
▁kokt	-14260
▁mode	-14261
▁velt	-14262
akelse	-14263
polert	-14264
spring	-14265
▁Hvert	-14266
▁Snoop	-14267
▁riste	-14268
chester	-14269
immelen	-14270
strakte	-14271
▁Sesong	-14272
▁analog	-14273
▁arrest	-14274
▁finale	-14275
▁kunnet	-14276
▁påtatt	-14277
▁Project	-14278
▁hindrer	-14279
▁håpløse	-14280
▁nedlast	-14281
▁tilsier	-14282
▁uteblir	-14283
▁fiendene	-14284
▁kunstige	-14285
▁prostitu	-14286
▁lykkelige	-14287
▁spilletid	-14288
▁trilogien	-14289
▁fyrverkeri	-14290
▁størrelser	-14291
▁ungdommelig	-14292
▁oppgradering	-14293
▁nysgjerrighet	-14294
▁filmopplevelse	-14295
:»	-14296
ræ	-14297
Dum	-14298
▁AV	-14299
anti	-14300
brem	-14301
chet	-14302
essa	-14303
spre	-14304
▁Hur	-14305
▁Kas	-14306
▁Leo	-14307
▁odd	-14308
▁vag	-14309
atham	-14310
harde	-14311
liten	-14312
løpet	-14313
▁Fine	-14314
▁life	-14315
▁raus	-14316
▁rope	-14317
▁sikt	-14318
illian	-14319
iseren	-14320
▁heavy	-14321
▁klokt	-14322
▁panor	-14323
▁slank	-14324
pregede	-14325
▁Empire	-14326
▁assist	-14327
▁forakt	-14328
▁rømmer	-14329
▁smakte	-14330
▁tidens	-14331
▁ujevnt	-14332
hengende	-14333
kjenning	-14334
pirrende	-14335
utviklet	-14336
▁Cameron	-14337
▁omvendt	-14338
▁truffet	-14339
▁noveller	-14340
▁styringen	-14341
▁svimlende	-14342
▁tittellåten	-14343
▁sammenhengende	-14344
api	-14345
løy	-14346
oro	-14347
ppy	-14348
▁Gå	-14349
ssak	-14350
stal	-14351
▁Ker	-14352
▁ign	-14353
RETHE	-14354
begyn	-14355
ennar	-14356
▁Come	-14357
▁Torp	-14358
▁Vill	-14359
▁damp	-14360
▁erkl	-14361
▁krab	-14362
▁stas	-14363
Border	-14364
butikk	-14365
ktende	-14366
pakket	-14367
▁liber	-14368
▁sinte	-14369
▁trail	-14370
▁urban	-14371
midlene	-14372
▁lengde	-14373
▁løftes	-14374
▁munter	-14375
▁Joachim	-14376
▁Vietnam	-14377
▁bagasje	-14378
▁display	-14379
▁karrier	-14380
▁luftige	-14381
▁nyheten	-14382
▁teknikk	-14383
▁lanseres	-14384
▁ensemblet	-14385
▁samarbeide	-14386
▁standarden	-14387
▁eksploderer	-14388
▁potensialet	-14389
▁Bildekvalitet	-14390
▁familiemedlem	-14391
hø	-14392
Med	-14393
bps	-14394
esa	-14395
imi	-14396
ude	-14397
▁ER	-14398
ivil	-14399
▁Esc	-14400
▁Who	-14401
▁rib	-14402
ommen	-14403
skjær	-14404
skost	-14405
▁3000	-14406
▁Kore	-14407
▁Sjel	-14408
▁kake	-14409
▁skål	-14410
▁stro	-14411
ansvar	-14412
gjøres	-14413
rieren	-14414
skipet	-14415
testen	-14416
▁Movie	-14417
▁bryst	-14418
▁gangs	-14419
▁hagen	-14420
▁hundr	-14421
▁Nelson	-14422
▁asfalt	-14423
▁traust	-14424
▁Eidsvåg	-14425
▁apokaly	-14426
▁eksplis	-14427
▁mangfol	-14428
▁skjærer	-14429
▁Mountain	-14430
▁Thompson	-14431
▁invitert	-14432
▁mørkeste	-14433
▁stillhet	-14434
▁absolutte	-14435
▁elektropop	-14436
▁filmskapere	-14437
▁paralleller	-14438
EP	-14439
RI	-14440
fle	-14441
uin	-14442
Blue	-14443
bjør	-14444
▁Klo	-14445
▁Mic	-14446
oksen	-14447
varig	-14448
▁Velg	-14449
▁bakt	-14450
▁bast	-14451
▁bely	-14452
▁bikk	-14453
▁camp	-14454
▁fren	-14455
abelle	-14456
itlene	-14457
vendte	-14458
▁Belle	-14459
▁blått	-14460
▁skrus	-14461
▁takke	-14462
▁Butler	-14463
▁bobler	-14464
▁boltre	-14465
▁fargel	-14466
▁måttet	-14467
▁pennen	-14468
vinneren	-14469
▁Stevens	-14470
▁forbryt	-14471
▁hjemmet	-14472
▁klinger	-14473
▁kontant	-14474
▁levetid	-14475
▁mentalt	-14476
▁minimal	-14477
▁politif	-14478
▁popular	-14479
▁spinner	-14480
▁stammer	-14481
▁udiskut	-14482
klassiker	-14483
▁meninger	-14484
▁sesonger	-14485
▁aggresjon	-14486
▁håndterer	-14487
▁smakfullt	-14488
▁undergang	-14489
▁korrupsjon	-14490
▁tolkninger	-14491
▁utmattende	-14492
▁vennskapet	-14493
▁spillbarheten	-14494
▁gjennomarbeidet	-14495
Er	-14496
Kj	-14497
?».	-14498
Bok	-14499
adi	-14500
ckt	-14501
gde	-14502
▁Ac	-14503
▁jr	-14504
Sing	-14505
seri	-14506
slys	-14507
▁PSP	-14508
▁get	-14509
▁ral	-14510
▁sab	-14511
▁tat	-14512
Ingen	-14513
trinn	-14514
worth	-14515
▁2006	-14516
▁Gret	-14517
▁Roma	-14518
brukte	-14519
sfigur	-14520
▁bombe	-14521
▁genre	-14522
▁hoder	-14523
▁hytte	-14524
▁nokre	-14525
▁ømhet	-14526
Station	-14527
modusen	-14528
▁Brasil	-14529
▁Sports	-14530
▁berømt	-14531
▁trangt	-14532
▁Nydelig	-14533
▁avslørt	-14534
▁ballett	-14535
▁bærende	-14536
▁diskret	-14537
▁ujålete	-14538
▁navigere	-14539
▁kontakten	-14540
▁oppførsel	-14541
▁hverandres	-14542
▁flyktninger	-14543
▁overlevende	-14544
14	-14545
Ol	-14546
VD	-14547
Ann	-14548
Jon	-14549
grå	-14550
weg	-14551
▁(6	-14552
Song	-14553
aret	-14554
fare	-14555
igne	-14556
▁16-	-14557
▁Hul	-14558
▁kjæ	-14559
ommes	-14560
skomp	-14561
usset	-14562
▁kles	-14563
▁lene	-14564
farger	-14565
iamond	-14566
ingens	-14567
kkeren	-14568
▁1950-	-14569
▁Citro	-14570
▁Major	-14571
▁Mazda	-14572
▁elite	-14573
▁gaten	-14574
▁irske	-14575
▁opply	-14576
▁skeps	-14577
▁Ferran	-14578
▁Marion	-14579
▁fjernt	-14580
▁innbyr	-14581
▁makten	-14582
▁myntet	-14583
▁strukt	-14584
følsomme	-14585
▁aktuelt	-14586
▁langsom	-14587
▁spillel	-14588
▁tildelt	-14589
▁utslipp	-14590
▁Marshall	-14591
▁digitalt	-14592
▁faktiske	-14593
▁Johansson	-14594
▁Kvelertak	-14595
▁gjennomføre	-14596
▁uforståelig	-14597
▁kompromissløs	-14598
▁statsminister	-14599
Oh	-14600
Sky	-14601
▁il	-14602
2.11	-14603
ages	-14604
beja	-14605
fors	-14606
mpet	-14607
sych	-14608
ynne	-14609
▁128	-14610
▁Bol	-14611
▁Eye	-14612
▁NAS	-14613
▁gap	-14614
▁hån	-14615
isker	-14616
leans	-14617
skens	-14618
▁Penn	-14619
▁kaff	-14620
▁Flash	-14621
▁Ideen	-14622
▁Stall	-14623
▁arkiv	-14624
▁baneb	-14625
▁flagg	-14626
▁panne	-14627
▁Canada	-14628
▁Diesel	-14629
▁dansen	-14630
▁døende	-14631
▁fatale	-14632
▁jomfru	-14633
▁mykere	-14634
▁Telenor	-14635
▁dystert	-14636
▁falsett	-14637
▁keitete	-14638
▁opphold	-14639
▁setting	-14640
▁Kendrick	-14641
▁befolket	-14642
▁endeløse	-14643
▁påvirket	-14644
▁effektene	-14645
▁fremdrift	-14646
▁gjenstand	-14647
▁håndholdt	-14648
▁oppfatning	-14649
▁overdrevent	-14650
DC	-14651
Ke	-14652
Sl	-14653
Mot	-14654
nad	-14655
umb	-14656
jørt	-14657
▁Dyr	-14658
agram	-14659
assin	-14660
avier	-14661
dagse	-14662
▁Bert	-14663
▁Blod	-14664
▁FIFA	-14665
▁Hurt	-14666
▁nach	-14667
skjære	-14668
▁Broad	-14669
▁Elton	-14670
▁Grunn	-14671
▁Syria	-14672
▁There	-14673
▁suger	-14674
▁trakk	-14675
bilitet	-14676
galleri	-14677
listene	-14678
▁Sommer	-14679
▁dagbok	-14680
▁disker	-14681
▁materi	-14682
▁norges	-14683
▁pleide	-14684
▁rasjon	-14685
▁regien	-14686
illingen	-14687
▁bidratt	-14688
▁bredden	-14689
▁forfall	-14690
konseptet	-14691
▁Australi	-14692
▁smartere	-14693
▁spretter	-14694
▁strømmer	-14695
▁kontakter	-14696
▁istedenfor	-14697
▁storslagne	-14698
▁installasjon	-14699
▁lagringsplass	-14700
hle	-14701
▁PU	-14702
Dead	-14703
Girl	-14704
malt	-14705
▁12-	-14706
▁Cal	-14707
▁Sid	-14708
▁gje	-14709
▁påt	-14710
▁årt	-14711
▁ekle	-14712
▁knir	-14713
▁malt	-14714
▁nenn	-14715
▁særs	-14716
▁temp	-14717
▁tørt	-14718
holmen	-14719
onerer	-14720
pakken	-14721
rådene	-14722
sterkt	-14723
umrene	-14724
▁2017.	-14725
▁Elect	-14726
▁Rover	-14727
▁Vidar	-14728
▁appet	-14729
▁armen	-14730
▁iført	-14731
▁lagre	-14732
▁lista	-14733
▁livsg	-14734
▁punch	-14735
stemmer	-14736
▁bevise	-14737
▁briten	-14738
▁feltet	-14739
▁fiffig	-14740
▁hissig	-14741
anlegget	-14742
▁brister	-14743
▁høstens	-14744
▁kjempet	-14745
▁avhenger	-14746
▁formelig	-14747
▁suverent	-14748
▁utlandet	-14749
muligheter	-14750
▁Grafikken	-14751
▁diskutere	-14752
▁elleville	-14753
publikummet	-14754
▁blandingen	-14755
▁soloartist	-14756
▁dreiemoment	-14757
▁nostalgiske	-14758
▁oppdatering	-14759
▁tradisjoner	-14760
▁uproblematisk	-14761
Død	-14762
Str	-14763
▁Od	-14764
▁XP	-14765
▁iT	-14766
▁zo	-14767
iljø	-14768
irer	-14769
mott	-14770
weet	-14771
▁Asl	-14772
▁Had	-14773
▁Lek	-14774
▁Mig	-14775
▁Snø	-14776
▁pas	-14777
strøk	-14778
støtt	-14779
▁Bass	-14780
▁Lily	-14781
▁Wine	-14782
▁away	-14783
▁fete	-14784
▁samp	-14785
▁tele	-14786
lerret	-14787
skarpe	-14788
▁Beeth	-14789
▁Honda	-14790
▁Keith	-14791
▁Lykke	-14792
▁kanon	-14793
▁koret	-14794
▁kryss	-14795
▁media	-14796
ironisk	-14797
rytende	-14798
▁Avslut	-14799
▁behold	-14800
▁forber	-14801
▁frekke	-14802
▁hunden	-14803
▁kjøpet	-14804
▁lysere	-14805
▁løgner	-14806
▁online	-14807
▁general	-14808
▁kundene	-14809
▁overord	-14810
▁aktivere	-14811
▁dommedag	-14812
▁godbiter	-14813
▁hardrock	-14814
▁kompakte	-14815
▁strømmen	-14816
stemningen	-14817
▁arrangert	-14818
▁halvtimen	-14819
▁justering	-14820
generasjonen	-14821
▁befolkningen	-14822
fag	-14823
ipt	-14824
FEST	-14825
plan	-14826
self	-14827
▁2,4	-14828
▁450	-14829
▁Fat	-14830
▁Opt	-14831
▁Wel	-14832
▁fås	-14833
Where	-14834
filet	-14835
ksopp	-14836
▁1920	-14837
▁Bost	-14838
▁Dist	-14839
▁Jule	-14840
▁sark	-14841
engsel	-14842
sjefen	-14843
ytende	-14844
▁Witch	-14845
▁artik	-14846
▁tregt	-14847
▁Ibsens	-14848
▁report	-14849
atherine	-14850
smakende	-14851
▁livsfar	-14852
▁mystikk	-14853
▁ødelegg	-14854
esingelen	-14855
▁opplagte	-14856
▁panseret	-14857
▁atmosfæren	-14858
▁bestselger	-14859
▁slentrende	-14860
▁hjemmelaget	-14861
▁ekstranummer	-14862
Ah	-14863
KK	-14864
Når	-14865
RAM	-14866
lok	-14867
▁9.	-14868
soul	-14869
▁15,	-14870
▁3,5	-14871
▁Lor	-14872
▁nar	-14873
Never	-14874
barer	-14875
prosa	-14876
røken	-14877
sevne	-14878
songw	-14879
▁Stat	-14880
▁gule	-14881
▁prop	-14882
▁seer	-14883
▁teft	-14884
inkler	-14885
▁Thing	-14886
▁Video	-14887
▁gåter	-14888
▁kinop	-14889
▁tapte	-14890
eligger	-14891
▁deltar	-14892
▁fenger	-14893
▁hennar	-14894
▁Johnsen	-14895
▁gryende	-14896
▁helikop	-14897
▁skurken	-14898
▁tøffere	-14899
▁nordiske	-14900
▁sørgelig	-14901
▁inspirere	-14902
▁bandmedlem	-14903
▁formidling	-14904
▁velmenende	-14905
▁variasjoner	-14906
▁Nasjonalitet	-14907
▁spektakulært	-14908
»;	-14909
kly	-14910
tal	-14911
anas	-14912
ugen	-14913
veit	-14914
▁DDR	-14915
▁Kla	-14916
▁høf	-14917
ilton	-14918
owers	-14919
vakre	-14920
▁Lana	-14921
▁List	-14922
Amerik	-14923
jeller	-14924
sdagen	-14925
steret	-14926
teater	-14927
▁Rocke	-14928
▁karam	-14929
▁klikk	-14930
dingene	-14931
mobiler	-14932
▁Andrea	-14933
▁Israel	-14934
▁Kommer	-14935
▁Runner	-14936
▁poplåt	-14937
▁sendte	-14938
▁sittet	-14939
▁triumf	-14940
▁utsagn	-14941
bejaende	-14942
liggende	-14943
▁Dybdahl	-14944
▁Manhatt	-14945
▁ektepar	-14946
▁grotesk	-14947
▁rammene	-14948
▁samtids	-14949
▁skulder	-14950
▁Stranger	-14951
▁ektefølt	-14952
▁fjernsyn	-14953
▁plagsomt	-14954
▁søstrene	-14955
▁trommene	-14956
▁tyskerne	-14957
▁utskrift	-14958
▁dedikerte	-14959
▁indierock	-14960
▁tangenter	-14961
▁uttrykker	-14962
samarbeidet	-14963
▁usentiment	-14964
▁hverdagslig	-14965
▁selvstendig	-14966
▁ansiktsuttrykk	-14967
Ty	-14968
▁48	-14969
▁Kh	-14970
▁PR	-14971
Lost	-14972
atør	-14973
født	-14974
veig	-14975
▁1,5	-14976
▁BBC	-14977
▁DVI	-14978
▁Syd	-14979
▁Tam	-14980
▁dju	-14981
ading	-14982
▁Egil	-14983
▁Four	-14984
▁Grey	-14985
▁Mate	-14986
▁iher	-14987
dempet	-14988
▁Bened	-14989
▁Herre	-14990
▁Skars	-14991
▁skitt	-14992
▁sprer	-14993
▁stygt	-14994
▁venne	-14995
romaner	-14996
▁Gyllen	-14997
▁Smiths	-14998
▁besøke	-14999
▁Express	-15000
▁Karsten	-15001
▁aktører	-15002
▁forsink	-15003
▁mentale	-15004
▁muskler	-15005
▁stjålet	-15006
▁styrken	-15007
▁tomgang	-15008
assistent	-15009
▁Creative	-15010
▁aktørene	-15011
▁bemerket	-15012
▁finesser	-15013
▁framleis	-15014
landskapet	-15015
▁maksimalt	-15016
▁parkering	-15017
▁ettertanke	-15018
▁innbydende	-15019
▁nettverket	-15020
▁programvaren	-15021
▁rulleteksten	-15022
▁forestillinger	-15023
OCK	-15024
lær	-15025
▁Mu	-15026
ikap	-15027
iral	-15028
ridd	-15029
sjen	-15030
skår	-15031
▁160	-15032
▁LAN	-15033
▁Mul	-15034
▁gyn	-15035
▁spo	-15036
bevis	-15037
opera	-15038
rench	-15039
▁Leif	-15040
▁2018.	-15041
▁Champ	-15042
▁Urørt	-15043
▁frigj	-15044
▁natta	-15045
▁Michel	-15046
▁forfly	-15047
▁nivåer	-15048
▁singer	-15049
▁ørepro	-15050
jenesten	-15051
ogjenger	-15052
▁Affleck	-15053
▁coveret	-15054
▁rappere	-15055
▁støttes	-15056
▁atmosfær	-15057
▁avsløres	-15058
▁medfører	-15059
▁psykolog	-15060
▁utmerker	-15061
▁kraftfull	-15062
▁oppgavene	-15063
anmeldelser	-15064
▁produserer	-15065
▁ungdommene	-15066
▁oppsummerer	-15067
▁oversiktlig	-15068
▁referansene	-15069
▁melodilinjer	-15070
▁utfordringen	-15071
IP	-15072
Nor	-15073
Out	-15074
kse	-15075
neys	-15076
olgt	-15077
▁Bud	-15078
▁Ple	-15079
▁myl	-15080
adise	-15081
estad	-15082
▁dash	-15083
▁gran	-15084
▁penn	-15085
▁stue	-15086
skilde	-15087
tester	-15088
▁Aaron	-15089
▁bibli	-15090
▁bitre	-15091
▁maner	-15092
▁snøen	-15093
▁øster	-15094
klasses	-15095
▁Blanch	-15096
▁Louise	-15097
▁glamor	-15098
▁harsel	-15099
▁iTunes	-15100
▁Forvent	-15101
▁utbytte	-15102
selskapet	-15103
▁eksotisk	-15104
▁forklart	-15105
▁spilling	-15106
elementene	-15107
▁betrakter	-15108
▁briljante	-15109
▁tvilsomme	-15110
▁skytespill	-15111
▁utstråling	-15112
▁perspektivet	-15113
▁FN	-15114
come	-15115
ives	-15116
jack	-15117
nære	-15118
olis	-15119
olli	-15120
otek	-15121
stab	-15122
▁720	-15123
▁Gos	-15124
▁Sab	-15125
eskri	-15126
fulgt	-15127
maker	-15128
moren	-15129
▁Hank	-15130
▁Lene	-15131
▁Lost	-15132
▁Symp	-15133
▁bane	-15134
gjorte	-15135
posten	-15136
▁Floyd	-15137
▁Hitch	-15138
▁Rolle	-15139
▁adapt	-15140
▁eufor	-15141
▁Gibson	-15142
▁Halvor	-15143
▁agenda	-15144
▁bølger	-15145
▁formål	-15146
▁gruppa	-15147
▁håpløs	-15148
▁snedig	-15149
▁økende	-15150
[...]
